!ct = !cheddar.ciphertext
!ctx = !cheddar.context
!encoder = !cheddar.encoder
!evk = !cheddar.eval_key
!pt = !cheddar.plaintext
!ui = !cheddar.user_interface
#layout = #tensor_ext.layout<"{ [i0] -> [ct, slot] : ct = 0 and (-i0 + slot) mod 16 = 0 and 0 <= i0 <= 9 and 0 <= slot <= 1023 }">
#original_type = #tensor_ext.original_type<originalType = tensor<10xf32>, layout = #layout>
module attributes {cheddar.P = array<i64: 1152921504608747521, 1152921504614055937, 1152921504615628801>, cheddar.Q = array<i64: 36028797017456641, 35184376545281, 35184367828993, 35184373989377, 35184368025601, 35184373006337, 35184368877569, 35184372744193>, cheddar.logDefaultScale = 45 : i64, cheddar.logN = 15 : i64, scheme.actual_slot_count = 16384 : i64, scheme.requested_slot_count = 1024 : i64} {
  func.func private @_assign_layout_365351921186589087() -> tensor<16x1024xf32> attributes {client.pack_func = {func_name = "alexnet_tiny"}} {
    %c63_i32 = arith.constant 63 : i32
    %c1018_i32 = arith.constant 1018 : i32
    %c64_i32 = arith.constant 64 : i32
    %c1087_i32 = arith.constant 1087 : i32
    %c6_i32 = arith.constant 6 : i32
    %c9_i32 = arith.constant 9 : i32
    %c16_i32 = arith.constant 16 : i32
    %cst = arith.constant dense<0.000000e+00> : tensor<16x1024xf32>
    %c0_i32 = arith.constant 0 : i32
    %c1_i32 = arith.constant 1 : i32
    %cst_0 = arith.constant dense<"0xD829ECBC79E1253D18CD643E5982DDBC15D02B3DECCB003E1C86E93DC691993A1B0F74BE38A4533D304663BE8685163E3FD58A3CB6BBCC3D9BC0B8BD0DFA1EBE289CD53C38395CBBCB5549BD84B50A3C56B18D3E2CE9AA3DF4EFD63D99D6AC3D367F173EEBB49BBC566852BE617D9ABC543EA63D799DC6BD9F7A90BCA8AC8DBDCCCE193E227D993D7E6F853D9F9B7E3DE01D74BB8ED6A13CCEB9F2BD44E45FBE97E4753CD7B4043D4AA8F73DA0E7203E91C4203E2E65CCBDAB4910BDB4BE443D2EA2813EEA8F173EA640E53D84D61EBD19E1B4BD7E91A13D596AE1BDBA53C3BC5C0D3CBC3C1D233EB54811BD77C779BEDB9E4E3DE0288FBD7FB18B3B960E0EBCE337E0BC9CDCA13D22F71CBEDFC453BD49178C3D75877BBDE7BD24BE8EEB883D8102E63DB77093BB64CA48BE2695903DF7F829BEE7F7FC3CAAC0B5BDFB88EDBDA00135BD492896BC11EF83BD0322713DC4B536BD3BBEC83D4956E63C16DC8EBD3058B1BD21B428BE2B2BEE3C333D11BDAFE972BEC76D5BBD2288B8BD7159213E525D2EBE259813BE6052E33DBBEE0A3E909298BD807381BDF7687C3D864B6EBE13963EBE10FAE5BC74B51E3E9C7932BDF55F253C3633E83DB8BE573EF2466CBDACAEDCBA16943A3E8ADF1BBED872D23D108DD0BD07E4273CE7C0C6BC6633C4BDDB56C9BD4B70E23CEFE2CB3D4F8F54BC2EBFE53BF1F3693DCEFCC6BD317D973D2DCDA73D404E853E620D1ABD5CA13BBDF57B9D3DA6C0A73DF42B5BBDAC2225BDAEA55D3D407DA9BD9C2728BDEEC9123CDFF7CB3DC3A477BD01A93CBE744244BEC2F600BEE77706BE74507DBC8F7BF3BD99EC8FBD65889EBD996E34BDA86C073E1E91873D5669D33A1CD63CBDBD7331BDB53E063D91466F3D4CE1B9BD8D146F3BB00950BE996FAD3C92169C3DA66EE5BC2A033A3E467AB4BD8F20B23CF4C76ABBE45324BC314E3BBC1B7B2F3C76A9AD3D87140D3E8AF46BB90BFAA63DCDB88FBD20DE9C3D4D0E9CBDFE5DDF3DA05E623EB20548BC368460BE9D7D60BDBC49FC3D4E8A623DF7E8CB3C4693CE3DA06E463DDF63F93D484CBC3D77D21B3E7FF6123DAA65B93D3799FBBCBD5B76BDE4C52E3E681DB13CECD6A43D53BC4A3CA03C70BD79F48F3AB90B133E246D633D3E412FBE0954B0BCC381363E7424AFBC785E38BE24D9413E05C18B3D0B6BE5BBF92118BD6AAADD3D14FF5DBDB529EB3D4C155E3D8571C83C55696E3C75558FBCA825D63DE338B1BDCB1526BEB7AC7B3D1147813DEFB4443D6B01273D184B03BDC646A13DED4895BB8F8547BD5980FFBCDBE94E3E5BA931BE95B64C3DDFF02BBE5A5431BC239D31BDC48155BE8C591F3DE1A91BBD6FF556BE8CF1AB3DD3F1123EB796183E5007133D5EEC963BD400083EAD462C3EA627E83DB0D3C0BD13F1A43C9C06343D064E39BE0840403D1EC1683E160F833DA4E0163E00D8953CFBEBEFBB342B1C3DD014A7BD9461C5BD6AAB013E22870C3E84FACABD043FC63DA8790EBC832F0B3D6C813C3D9AA4CB3D8786073C8D66103E9378FD3C77AA7F3DF5A6AABDF30B5D3EB770403D9905923DA0AD24BE487DA8BDC284FD3D6E05EB3C96F843BE4CA4D43DC3BB5EBDD484103EF4E80FBC1BB2A73C2C73F13D7BCEB7BDC455CBBDB5F8A0BCAD67A93D264808BE87CE2ABEB3B2A83DDCFA76BDE1A720BD2C233EBE120E8BBD455F46BA988ABE3DACF29DBD1FB7293E73328CBDAFE58BBDE86C1D3E683AAD3CFD1B62BD8D2B7EBC038E0A3EA123163E7C47A7BD0F0C8BBB84B6133C63FBC9BD0278B6BB1D890B3AD183E93DD847F73D1BD806BD3A45AFBC0C0C883D75B16FBD651B713DA70610BC6788C6BDCDF5C3BDC72D143EF62380BCE6F8273EAA6252BD288EEE3C9602753E858DD8BD125642BE30BF033E9C54A9BD84B307BBFAFD6FBDD0ADDB3C79ABC2BD2C6893BC8E3E383D6D80CEBD91608FBDBB490EBD8A4F12BEBB142DBDE1A2423CBEA723BDC74FDEBC776D02BBD84B86BD95878D3D4E0B133ED0353EBDB9BC463D5C4BC4BC20B4153DF955203ED258503D009935BEE4F4393D917DFC3D1688B5BCF0E7CB3DEE558DBD851E18BE944A673CFCDC33BEA06BC4BCCCC5033E4A8F43BE3E0503BE365CD3BD8C7CCFBB2FCC15BD85450F3E5673C33D22DD4A3DC8996E3C2111213DB388B0BD838EAF3D25BFE3BDD015AB3D07ECF23D83BDAC3C8F5A90BC89F7233D7E8292BE259CF73C1DB839BCF0E5A5BBA7B2903DB800F5BBAD83E9BD94AC67BCA65DDD3BC74E3C3CF4A4843CDFDCD43D7D6BDEBD0EEF8F3CBC16043ECD9F31BEA42A933C63C56FBDCDD717BDF94DB9BD5DE58ABC698B3C3E497A01BE4089EFBD6F5105BE3CE3303ED55F3DBD350728BBDAFA24BDF56AC1BDAAA2C0BC62B97B3E4E8C0E3E82AEAEBD889F843DBE4BAABD69E635BEBCCBD03D4796ED3D443BD63DF17440BD689F88BC4F8D993D565B203DE13B21BDFFCA25BEB8923A3C2EFBDC3D1E44F5BD63D1823DABCC073D60A1993DA194B23DFB398EBD9F9325BE94875ABDE117B63D3A015EBDDC238EBD9B813ABE9B78333E2D1BA93DB9AC9D3DAE30C63D41386C3D7A27C8BCD22786BC60212FBD13E6863E9AB3633D00F93DBDE0AA3E3DA506CFBDBE0F1A3E0F6387BD9E3E4D3DEE4FDA3DE8991D3D96C71A3CC8958D3A39F2B8BB38376CBDC11B38BD9382173E90D331BC5BEEA0BDBA7953BD1D5BE13D3F5D8A3DC682653D1CF6D2BC6AD96A3D23CD83BD02ADD4BCAF9DC63D540DB33D5B18C9BD3A36AFBDFD18323C86C1303E642744BEA602E43C26E80CBE36E981BD174515BD7F3D2CBD90A45ABDC3ED3C3A9D3D5BBD71C115BEA1B79F3D2F309A3D9EAEAC3D6EC51DBEAEDFF43CC3708A3DB030D3BDA078703AC47D3EBCE0A23C3E8211453E1B6E2ABECD607F3E3070BBBD86D7C83D0BC2C63DD8EACBBDE10A4A3DEC2E30BCB70D633D7DF7BC3CA502F53DB911F73BBE8589BC5579E03DEEBA6D3D19E0953D7B1B88BDE011D6BDFB8968BDD7497EBD7C03A13DACE1C73D5C2A7EBCAF86123E9B210C3E7464C73CCD52A8BD8E51213E10F1C7BB85B54E3C2B1A0BBDA43AB6BD806316BE879C813DC770A0BDE3A59C3E896DDEBD87C100BEECF3503D099A1C3EBBA5D33BF8636A3D7DC73CBE1EC18ABD62E0DBBD7D0D42BE11A93F3C61AA65BE936407BEDA085CBD523FAABD725E223DD054FA3CCC0CB73D94169A3D72A3E93DA82849B99F99F83C1984513D2017683CD8B022BD202B08BD9B6FA7BDBBB12C3DD2081ABC67D187BDB4A087BDC1E3F7BD7A77C83DA4CE003C92B3B0BD3097A53D518F65BD920610BE7625D13DB4FE5BBD2D7C27BD4EF0863B9500EA3DFF50033B4694F5BDA3C55E3DDCA646BDCB52413E9ED2EAB81DDE64BE6F60123D7720473ECE5F213E5E7D3B3ECED8D0BD0ECFBA3D4FDD93BDE5BCB73CAF5902BE0BFC83BDCE7E8ABD2D06B83DBEFCA33D4EC5E23C7D480ABE874BFFBCFECD98BD0E1CB23DD14AF13D0759D83D3FAB9ABD9C438CBED9EF34BE1993113EA15A24BD97BF99BD5B35283E698D013E263A203B175BF0BC446F58BC7E17BA3C48D8233EEC0A2D3DD5B0943D6E77EF3DB68CEFBD81989A3D8C4FF1BCF7D280BEB0EC59BEAF82D0BD"> : tensor<10x64xf32>
    %0 = scf.for %arg0 = %c0_i32 to %c16_i32 step %c1_i32 iter_args(%arg1 = %cst) -> (tensor<16x1024xf32>)  : i32 {
      %1 = scf.for %arg2 = %c0_i32 to %c1018_i32 step %c1_i32 iter_args(%arg3 = %arg1) -> (tensor<16x1024xf32>)  : i32 {
        %2 = arith.remsi %arg2, %c16_i32 : i32
        %3 = arith.cmpi sle, %2, %c9_i32 : i32
        %4 = scf.if %3 -> (tensor<16x1024xf32>) {
          %5 = arith.addi %arg2, %c6_i32 : i32
          %6 = arith.remsi %5, %c16_i32 : i32
          %7 = arith.subi %6, %c6_i32 : i32
          %8 = arith.subi %c0_i32, %arg0 : i32
          %9 = arith.subi %8, %arg2 : i32
          %10 = arith.addi %9, %c1087_i32 : i32
          %11 = arith.remsi %10, %c64_i32 : i32
          %12 = arith.subi %c63_i32, %11 : i32
          %13 = arith.index_cast %7 : i32 to index
          %14 = arith.index_cast %12 : i32 to index
          %extracted = tensor.extract %cst_0[%13, %14] : tensor<10x64xf32>
          %15 = arith.index_cast %arg0 : i32 to index
          %16 = arith.index_cast %arg2 : i32 to index
          %inserted = tensor.insert %extracted into %arg3[%15, %16] : tensor<16x1024xf32>
          scf.yield %inserted : tensor<16x1024xf32>
        } else {
          scf.yield %arg3 : tensor<16x1024xf32>
        }
        scf.yield %4 : tensor<16x1024xf32>
      }
      scf.yield %1 : tensor<16x1024xf32>
    }
    return %0 : tensor<16x1024xf32>
  }
  func.func private @_assign_layout_7374513594031956373() -> tensor<64x1024xf32> attributes {client.pack_func = {func_name = "alexnet_tiny"}} {
    %c127_i32 = arith.constant 127 : i32
    %c1024_i32 = arith.constant 1024 : i32
    %c128_i32 = arith.constant 128 : i32
    %c1151_i32 = arith.constant 1151 : i32
    %c64_i32 = arith.constant 64 : i32
    %cst = arith.constant dense<0.000000e+00> : tensor<64x1024xf32>
    %c0_i32 = arith.constant 0 : i32
    %c1_i32 = arith.constant 1 : i32
    %cst_0 = arith.constant dense<"0xD2C73ABC2331A83CC868563D000000005EBC2ABDA9608FBD3FCC44BC0000000018899CBD705C4FBD1A7F3FBB0000000000000000000000000000000000000000EEAC2DBD37A9EFBCF1B8FCBC0000000095461BBD3BACA03A140AFA3C0000000019F0B8BC03CB3EBC260AAF3C00000000000000000000000000000000000000002F753EBDED7F893C9E4B113C0000000000FBF9BC9C73133D7544423D000000006D52413CC06A0E3DAADA1C3D0000000000000000000000000000000000000000B6D4ED3D3713FB3C26BD43BC00000000F4F9E33D6663ED3C7C1D6ABD00000000FBB6643C36C02E3C68BCD8BC0000000000000000000000000000000000000000A82883BD82690EBDAC10D0BB00000000B61B70BD8273FD3A9099243D000000004E0123BDD2930F3DA3A3693D00000000000000000000000000000000000000006346E93BADF097BDE8CEA0BD000000000D50D1BDD6183EBED6F4FABD00000000FC41A3BD82E4CFBDBB6066BD000000000000000000000000000000000000000051823B3D06587D3DE32A973C000000009AA3073DD77D7A3D1EC11A3D00000000A8651ABCDE45003D9D3D953C000000000000000000000000000000000000000057FF2CBD41E7F1BCC41B7DBC00000000D6E600BD91F28DBDCE684ABD000000003C60293CE3AC3EBC2E4FA2BC000000000000000000000000000000000000000000000000843CA73CD2C73ABC2331A83C00000000C8A3853C5EBC2ABDA9608FBD00000000635BEBBC18899CBD705C4FBD0000000000000000000000000000000000000000CB3434BDEEAC2DBD37A9EFBC00000000B51B0DBC95461BBD3BACA03A000000001CFF2A3C19F0B8BC03CB3EBC00000000000000000000000000000000000000003EE25EBD2F753EBDED7F893C000000004E599CBC00FBF9BC9C73133D0000000014127B3C6D52413CC06A0E3D00000000000000000000000000000000000000004398963DB6D4ED3D3713FB3C000000007449CE3CF4F9E33D6663ED3C0000000005C1BDBCFBB6643C36C02E3C0000000000000000000000000000000000000000E4E911BDA82883BD82690EBD0000000084DBA6BCB61B70BD8273FD3A00000000FAE291BC4E0123BDD2930F3D00000000000000000000000000000000000000004EC5363B6346E93BADF097BD000000006E2620BD0D50D1BDD6183EBE00000000B01B0DBDFC41A3BD82E4CFBD0000000000000000000000000000000000000000C8FB1B3B51823B3D06587D3D00000000869B1F3C9AA3073DD77D7A3D00000000F380B8BCA8651ABCDE45003D00000000000000000000000000000000000000004FA5E6BC57FF2CBD41E7F1BC0000000001AA3DBCD6E600BD91F28DBD000000000EBB0D3B3C60293CE3AC3EBC0000000000000000000000000000000000000000000000000000000000000000C6073DBD737D233DE6A37B3D00000000D2C73ABC2331A83CC868563D000000005EBC2ABDA9608FBD3FCC44BC0000000000000000000000000000000000000000CBBCDDBCBE8C2CBD70DC23BD00000000EEAC2DBD37A9EFBCF1B8FCBC0000000095461BBD3BACA03A140AFA3C0000000000000000000000000000000000000000A21889BB6ADC7E3C7A718BB9000000002F753EBDED7F893C9E4B113C0000000000FBF9BC9C73133D7544423D000000000000000000000000000000000000000083C6993CD71F4A3CFD9F993C00000000B6D4ED3D3713FB3C26BD43BC00000000F4F9E33D6663ED3C7C1D6ABD0000000000000000000000000000000000000000E93639BD7C29D8BAF71F2C3C00000000A82883BD82690EBDAC10D0BB00000000B61B70BD8273FD3A9099243D0000000000000000000000000000000000000000DD89F23CF0E3223C7D5348BC000000006346E93BADF097BDE8CEA0BD000000000D50D1BDD6183EBED6F4FABD0000000000000000000000000000000000000000CC54543B0D20033DC29B91BA0000000051823B3D06587D3DE32A973C000000009AA3073DD77D7A3D1EC11A3D00000000000000000000000000000000000000004E39E0B9938CE63C17E9673C0000000057FF2CBD41E7F1BCC41B7DBC00000000D6E600BD91F28DBDCE684ABD000000000000000000000000000000000000000000000000A7C2C9BCC6073DBD737D233D00000000843CA73CD2C73ABC2331A83C00000000C8A3853C5EBC2ABDA9608FBD00000000000000000000000000000000000000002F5CCCBCCBBCDDBCBE8C2CBD00000000CB3434BDEEAC2DBD37A9EFBC00000000B51B0DBC95461BBD3BACA03A000000000000000000000000000000000000000024E2A3BCA21889BB6ADC7E3C000000003EE25EBD2F753EBDED7F893C000000004E599CBC00FBF9BC9C73133D00000000000000000000000000000000000000009556CE3C83C6993CD71F4A3C000000004398963DB6D4ED3D3713FB3C000000007449CE3CF4F9E33D6663ED3C00000000000000000000000000000000000000009F6D07BDE93639BD7C29D8BA00000000E4E911BDA82883BD82690EBD0000000084DBA6BCB61B70BD8273FD3A000000000000000000000000000000000000000098B8F33BDD89F23CF0E3223C000000004EC5363B6346E93BADF097BD000000006E2620BD0D50D1BDD6183EBE00000000000000000000000000000000000000003DCFF4BCCC54543B0D20033D00000000C8FB1B3B51823B3D06587D3D00000000869B1F3C9AA3073DD77D7A3D0000000000000000000000000000000000000000DA316CBC4E39E0B9938CE63C000000004FA5E6BC57FF2CBD41E7F1BC0000000001AA3DBCD6E600BD91F28DBD0C69AF3DD1F4153D06EB1CBC00000000EFD9CB3D08B5A13CB6CE8E3A00000000F20DEC3CEF7D523C6DFDD53C0000000000000000000000000000000000000000C77D54BD88F88FBD0A1DACBC00000000FB10CFBC609FDEBC27F9013D00000000886E933C3FBA4ABCDB5FF73B0000000000000000000000000000000000000000133A0E3CF5B50F3DD56BEF3B000000001B408F3DDF385C3DA26D003C00000000469DE03CF4ECB63CB0F9A23C0000000000000000000000000000000000000000955B89BC23F6EA3C9D085B3C00000000A659483D2617DC3D98FF563D00000000502A5A3D2BE6983DB469143D0000000000000000000000000000000000000000BCDD6CBC3FA69D3CB513CC3C00000000CD6C30BC97614C3D950F903D0000000004AA6E3BFCCCC73CFD73F43C0000000000000000000000000000000000000000B756C6BD70ED6ABDFB5059BC000000002F9E6A3D5161333D1EB34DBC00000000BDC74A3D59C7903DCCCBA83C0000000000000000000000000000000000000000893A5BBD92C5DC3B5EB1383C00000000295CD2BD559692BC4593FFBB00000000901265BDE3403ABD7B0CEDBC0000000000000000000000000000000000000000E7E13A3C027C1CBDDB276FBD0000000036F657BD3F65973C9012C93C000000006707B2BD25BAC13B927FFC3C00000000000000000000000000000000000000000000000086A2213D0C69AF3DD1F4153D00000000E7A7A53DEFD9CB3D08B5A13C0000000034662C3DF20DEC3CEF7D523C0000000000000000000000000000000000000000B7B329BBC77D54BD88F88FBD0000000059C0093DFB10CFBC609FDEBC00000000CF511B3D886E933C3FBA4ABC0000000000000000000000000000000000000000EC739CBC133A0E3CF5B50F3D000000007DC5C43C1B408F3DDF385C3D0000000001AACC3C469DE03CF4ECB63C0000000000000000000000000000000000000000B56603BD955B89BC23F6EA3C0000000072A8C6BBA659483D2617DC3D00000000B91E733C502A5A3D2BE6983D0000000000000000000000000000000000000000D10210BCBCDD6CBC3FA69D3C000000007F891E3CCD6C30BC97614C3D0000000084F8143C04AA6E3BFCCCC73C00000000000000000000000000000000000000003D1458BDB756C6BD70ED6ABD000000008605743A2F9E6A3D5161333D00000000B34318BABDC74A3D59C7903D0000000000000000000000000000000000000000E4A648BD893A5BBD92C5DC3B00000000C8AFBDBD295CD2BD559692BC00000000EA5721BD901265BDE3403ABD00000000000000000000000000000000000000007CCD0FBCE7E13A3C027C1CBD000000008E1F3FBD36F657BD3F65973C0000000049067EBD6707B2BD25BAC13B0000000000000000000000000000000000000000000000000000000000000000D294743C9273F33CFF357D3C000000000C69AF3DD1F4153D06EB1CBC00000000EFD9CB3D08B5A13CB6CE8E3A000000000000000000000000000000000000000015F80CBCF04F63BDB01B39BD00000000C77D54BD88F88FBD0A1DACBC00000000FB10CFBC609FDEBC27F9013D00000000000000000000000000000000000000000EA30ABD06396F3BD49D9E3C00000000133A0E3CF5B50F3DD56BEF3B000000001B408F3DDF385C3DA26D003C000000000000000000000000000000000000000080744BBC1D3787BBBE3B3DBB00000000955B89BC23F6EA3C9D085B3C00000000A659483D2617DC3D98FF563D0000000000000000000000000000000000000000F56D46B8CD3FCDBB466D7FBC00000000BCDD6CBC3FA69D3CB513CC3C00000000CD6C30BC97614C3D950F903D0000000000000000000000000000000000000000F041D6BD1E80F9BCDEFCA23C00000000B756C6BD70ED6ABDFB5059BC000000002F9E6A3D5161333D1EB34DBC00000000000000000000000000000000000000003DA6DCBB0DBAAABCF69D21BC00000000893A5BBD92C5DC3B5EB1383C00000000295CD2BD559692BC4593FFBB00000000000000000000000000000000000000003AC0BABC5DF74FBD5A7155BD00000000E7E13A3C027C1CBDDB276FBD0000000036F657BD3F65973C9012C93C000000000000000000000000000000000000000000000000CD3A2E3AD294743C9273F33C0000000086A2213D0C69AF3DD1F4153D00000000E7A7A53DEFD9CB3D08B5A13C000000000000000000000000000000000000000051C7DE3A15F80CBCF04F63BD00000000B7B329BBC77D54BD88F88FBD0000000059C0093DFB10CFBC609FDEBC0000000000000000000000000000000000000000688F94BC0EA30ABD06396F3B00000000EC739CBC133A0E3CF5B50F3D000000007DC5C43C1B408F3DDF385C3D0000000000000000000000000000000000000000E12737BC80744BBC1D3787BB00000000B56603BD955B89BC23F6EA3C0000000072A8C6BBA659483D2617DC3D0000000000000000000000000000000000000000CD9319BCF56D46B8CD3FCDBB00000000D10210BCBCDD6CBC3FA69D3C000000007F891E3CCD6C30BC97614C3D000000000000000000000000000000000000000061455EBDF041D6BD1E80F9BC000000003D1458BDB756C6BD70ED6ABD000000008605743A2F9E6A3D5161333D00000000000000000000000000000000000000000B068B3B3DA6DCBB0DBAAABC00000000E4A648BD893A5BBD92C5DC3B00000000C8AFBDBD295CD2BD559692BC000000000000000000000000000000000000000034B4C5BC3AC0BABC5DF74FBD000000007CCD0FBCE7E13A3C027C1CBD000000008E1F3FBD36F657BD3F65973CFA6599BD6D2F38BD33EF9EBC000000003198813D437B0B3D4AABA43B00000000C4EE753D8F3F273D0340A6BB00000000000000000000000000000000000000002EDC78BDD1BDB3BC883DEF3C0000000090F487BD482E7B3CAC94C13C00000000029D08BD3CFDF43C1923C63C00000000000000000000000000000000000000006B0779BD24DFEEBDDD77F5BC000000005EF98B39B88468BD84BD87BC00000000E9D4EA3CF5AF8B3C5ABE283C0000000000000000000000000000000000000000170AF73D18033C3B0E5E65BB000000001039AC3DD628E1BC8CA307BD00000000A084B13C44BA0FBB1DBE57BC0000000000000000000000000000000000000000A99D153D4A4EB03DA556B23B000000009CF2493CB7E3FC3A18770FBD000000001674FD3B8C6C95BCEB4904BD00000000000000000000000000000000000000003D8B0D3D41AD153D0CF8B63A0000000016251BBDC6361BBCF43E4F3C00000000E76281BC55925C3C1CA9BB3C0000000000000000000000000000000000000000130426BD07138C3C0658C23C00000000D002153D60CD10BCF97898BB00000000AAD0613D316563BC631C1BBD00000000000000000000000000000000000000000E33213DA837E5BB16E0D6BC00000000BDA0A53CC47E893D05D74F3D0000000007E53F3C4CB8343DD7E5163D00000000000000000000000000000000000000000000000020144ABDFA6599BD6D2F38BD00000000894A0C3D3198813D437B0B3D00000000D39C673CC4EE753D8F3F273D0000000000000000000000000000000000000000067A1DBC2EDC78BDD1BDB3BC000000005CEA6DBD90F487BD482E7B3C00000000130A20BD029D08BD3CFDF43C0000000000000000000000000000000000000000DBF5D33C6B0779BD24DFEEBD00000000E8BD253D5EF98B39B88468BD000000002184B33CE9D4EA3CF5AF8B3C00000000000000000000000000000000000000000EFFE93D170AF73D18033C3B000000007FB1A03D1039AC3DD628E1BC00000000B4392F3CA084B13C44BA0FBB000000000000000000000000000000000000000017B434BDA99D153D4A4EB03D000000001DC3C9BC9CF2493CB7E3FC3A000000001529CFBB1674FD3B8C6C95BC0000000000000000000000000000000000000000E5901ABA3D8B0D3D41AD153D000000004F0F81BC16251BBDC6361BBC00000000D50BD0BBE76281BC55925C3C000000000000000000000000000000000000000094E10ABD130426BD07138C3C000000000827263DD002153D60CD10BC00000000251BFF3CAAD0613D316563BC0000000000000000000000000000000000000000F1D3A43C0E33213DA837E5BB00000000BF9D7A3BBDA0A53CC47E893D000000006736913B07E53F3C4CB8343D0000000000000000000000000000000000000000000000000000000000000000C906A0BD216B1CBD06AAF1BC00000000FA6599BD6D2F38BD33EF9EBC000000003198813D437B0B3D4AABA43B00000000000000000000000000000000000000001F20E3BCE35EF1BBF4CBF33C000000002EDC78BDD1BDB3BC883DEF3C0000000090F487BD482E7B3CAC94C13C0000000000000000000000000000000000000000E9B404BD95612FBD62D94ABB000000006B0779BD24DFEEBDDD77F5BC000000005EF98B39B88468BD84BD87BC00000000000000000000000000000000000000005F646E3DF0B1E63C47BC863C00000000170AF73D18033C3B0E5E65BB000000001039AC3DD628E1BC8CA307BD000000000000000000000000000000000000000084CF023D98FF863D06E0053C00000000A99D153D4A4EB03DA556B23B000000009CF2493CB7E3FC3A18770FBD0000000000000000000000000000000000000000E0FE673D889F733D45F23E3C000000003D8B0D3D41AD153D0CF8B63A0000000016251BBDC6361BBCF43E4F3C0000000000000000000000000000000000000000726CB2BC3D8E453C05851BBC00000000130426BD07138C3C0658C23C00000000D002153D60CD10BCF97898BB0000000000000000000000000000000000000000E4B7FC3C61D8F5BC396124BD000000000E33213DA837E5BB16E0D6BC00000000BDA0A53CC47E893D05D74F3D000000000000000000000000000000000000000000000000BA3B8EBDC906A0BD216B1CBD0000000020144ABDFA6599BD6D2F38BD00000000894A0C3D3198813D437B0B3D00000000000000000000000000000000000000001C071A3C1F20E3BCE35EF1BB00000000067A1DBC2EDC78BDD1BDB3BC000000005CEA6DBD90F487BD482E7B3C0000000000000000000000000000000000000000ADF8EF3BE9B404BD95612FBD00000000DBF5D33C6B0779BD24DFEEBD00000000E8BD253D5EF98B39B88468BD00000000000000000000000000000000000000008A693E3D5F646E3DF0B1E63C000000000EFFE93D170AF73D18033C3B000000007FB1A03D1039AC3DD628E1BC0000000000000000000000000000000000000000566FD3BC84CF023D98FF863D0000000017B434BDA99D153D4A4EB03D000000001DC3C9BC9CF2493CB7E3FC3A0000000000000000000000000000000000000000A46F103CE0FE673D889F733D00000000E5901ABA3D8B0D3D41AD153D000000004F0F81BC16251BBDC6361BBC0000000000000000000000000000000000000000097B31BD726CB2BC3D8E453C0000000094E10ABD130426BD07138C3C000000000827263DD002153D60CD10BC0000000000000000000000000000000000000000D3CDA93CE4B7FC3C61D8F5BC00000000F1D3A43C0E33213DA837E5BB00000000BF9D7A3BBDA0A53CC47E893D6928B6BD6CEEF7BD12E4B6BB00000000BBAA33BD709676BD015E303C00000000B1DD843B5AA299BC32CA093C0000000000000000000000000000000000000000BDCF2ABD143477BC7D4F21BC00000000812F743D6184CABCFC4C52BD00000000B6697C3D32182C3CFE8095BB000000000000000000000000000000000000000097800BBD8208BDBCC17D8D3C00000000BA9629BC68C6D03B1920C1BB000000001FCF3A3BA3ADC23C8EA3D13B0000000000000000000000000000000000000000DA457B3DCFD6EE3C4302D8BC000000006750E33D8929F13C30D177BD00000000CB98863D2A40533CAA85AEBC0000000000000000000000000000000000000000B16B9B3D07B21D3D99009C3C00000000EA18243DA4B8EC3CEF1E38BA00000000C878373D4D0C223D5988943B00000000000000000000000000000000000000003A77063DDD57633D642A853C00000000009F22BC45C74FBDE83643BD00000000100838BDEE2F80BDB07827BD0000000000000000000000000000000000000000C654CFBD2D1A85BC4E708B3C00000000C4C1E6BD9BDDECBC8D0EDDBB000000009E10F9BB94F6D2BCFC670EBD00000000000000000000000000000000000000002C81033EC5D70A3D7499D8B9000000004EAE953DD8C40E3DF191A63B00000000C229BCBCAD05973BB5DA503C000000000000000000000000000000000000000000000000085FD93C6928B6BD6CEEF7BD000000006A06DE3CBBAA33BD709676BD00000000DFBEFF3CB1DD843B5AA299BC0000000000000000000000000000000000000000975615BDBDCF2ABD143477BC00000000B624073D812F743D6184CABC000000008AB33E3DB6697C3D32182C3C00000000000000000000000000000000000000005214CE3B97800BBD8208BDBC00000000FD44B9BCBA9629BC68C6D03B00000000B6D56DBC1FCF3A3BA3ADC23C00000000000000000000000000000000000000008BCABE3BDA457B3DCFD6EE3C00000000B275AC3C6750E33D8929F13C00000000B71E013DCB98863D2A40533C0000000000000000000000000000000000000000A825673DB16B9B3D07B21D3D0000000071702B3CEA18243DA4B8EC3C000000001AF61F3CC878373D4D0C223D0000000000000000000000000000000000000000875BD2BB3A77063DDD57633D0000000018BBE0BB009F22BC45C74FBD00000000CA41BEBC100838BDEE2F80BD000000000000000000000000000000000000000027328BBDC654CFBD2D1A85BC00000000465BB9BDC4C1E6BD9BDDECBC000000008B1D88BC9E10F9BB94F6D2BC0000000000000000000000000000000000000000DDBDC03D2C81033EC5D70A3D00000000036A313D4EAE953DD8C40E3D00000000A5FB72BCC229BCBCAD05973B0000000000000000000000000000000000000000000000000000000000000000620A28BDCB0BA3BDD80502BC000000006928B6BD6CEEF7BD12E4B6BB00000000BBAA33BD709676BD015E303C0000000000000000000000000000000000000000899522BD6FF6A43CFD48173D00000000BDCF2ABD143477BC7D4F21BC00000000812F743D6184CABCFC4C52BD0000000000000000000000000000000000000000EEDBAABCE431BABBAB2EF23C0000000097800BBD8208BDBCC17D8D3C00000000BA9629BC68C6D03B1920C1BB000000000000000000000000000000000000000047AD833CB69A4E3CE734523C00000000DA457B3DCFD6EE3C4302D8BC000000006750E33D8929F13C30D177BD0000000000000000000000000000000000000000A01BA53D0262493DA7E3C63C00000000B16B9B3D07B21D3D99009C3C00000000EA18243DA4B8EC3CEF1E38BA000000000000000000000000000000000000000064910EBB46BF323DD4A6BC3C000000003A77063DDD57633D642A853C00000000009F22BC45C74FBDE83643BD00000000000000000000000000000000000000007F7E7B3B4B6656BC0E3834BC00000000C654CFBD2D1A85BC4E708B3C00000000C4C1E6BD9BDDECBC8D0EDDBB00000000000000000000000000000000000000003493043D2E3A6F3BE199ED3B000000002C81033EC5D70A3D7499D8B9000000004EAE953DD8C40E3DF191A63B0000000000000000000000000000000000000000000000007D17FB3C620A28BDCB0BA3BD00000000085FD93C6928B6BD6CEEF7BD000000006A06DE3CBBAA33BD709676BD0000000000000000000000000000000000000000878FBBBC899522BD6FF6A43C00000000975615BDBDCF2ABD143477BC00000000B624073D812F743D6184CABC00000000000000000000000000000000000000006DBE6B3CEEDBAABCE431BABB000000005214CE3B97800BBD8208BDBC00000000FD44B9BCBA9629BC68C6D03B00000000000000000000000000000000000000005F7A853C47AD833CB69A4E3C000000008BCABE3BDA457B3DCFD6EE3C00000000B275AC3C6750E33D8929F13C00000000000000000000000000000000000000001247643DA01BA53D0262493D00000000A825673DB16B9B3D07B21D3D0000000071702B3CEA18243DA4B8EC3C0000000000000000000000000000000000000000E5A9BABC64910EBB46BF323D00000000875BD2BB3A77063DDD57633D0000000018BBE0BB009F22BC45C74FBD0000000000000000000000000000000000000000BA1BC23B7F7E7B3B4B6656BC0000000027328BBDC654CFBD2D1A85BC00000000465BB9BDC4C1E6BD9BDDECBC0000000000000000000000000000000000000000CD52133D3493043D2E3A6F3B00000000DDBDC03D2C81033EC5D70A3D00000000036A313D4EAE953DD8C40E3DEE882C3DA644B13D0A881F3D000000002F98DD3DBBFBBD3D64CCD73C00000000F7675B3D5932073DDE36C53C0000000000000000000000000000000000000000991961BC99F427BD3A4EA9BC00000000401434BDB45FE3BD975D9CBD00000000F1B68EBD5792A3BD270135BD0000000000000000000000000000000000000000492BF9BCA2409B3CEB5A90BB00000000BC9439BDB96B61BD3AB462BC00000000B5D6823C60373DBD840520BC00000000000000000000000000000000000000006D23853DAA2C593D7B4F093D00000000762A523CACEC7A3C88DF73BC0000000095B2E03AB0BA4ABC73980CBD0000000000000000000000000000000000000000414A62BBB14B5ABDC3D92CBD00000000655457BDFB7B7DBD216099BC00000000334215BDEAFC9FBCC437043C000000000000000000000000000000000000000070CF26BDDE44BD3B96626B3B000000009D9DDBBCF53ECA3C8FC33A3D000000000D3E423B4019EB3B86464C3C0000000000000000000000000000000000000000D1AF47BD099B833D3F56823D00000000E6A5B8BC35DD9CBDA548E8BC0000000046A9E1BCC967BCBD2E452CBD000000000000000000000000000000000000000009058DBD726585BD6437903A000000004FFA05BE509AB9BD9A2215BD0000000049C598BD590F2DBC04539ABB000000000000000000000000000000000000000000000000A7C2B3BBEE882C3DA644B13D000000001B1F2B3D2F98DD3DBBFBBD3D000000000DD1363DF7675B3D5932073D0000000000000000000000000000000000000000B038D83B991961BC99F427BD000000001B4018BC401434BDB45FE3BD000000005B4A0BBDF1B68EBD5792A3BD000000000000000000000000000000000000000053415CBD492BF9BCA2409B3C0000000089B086BBBC9439BDB96B61BD000000005AA1563DB5D6823C60373DBD0000000000000000000000000000000000000000AB693A3D6D23853DAA2C593D00000000DF508EBC762A523CACEC7A3C0000000065C8A5BC95B2E03AB0BA4ABC00000000000000000000000000000000000000004F6AFA3B414A62BBB14B5ABD00000000EB211ABC655457BDFB7B7DBD0000000031D710BC334215BDEAFC9FBC0000000000000000000000000000000000000000E2C12FBD70CF26BDDE44BD3B00000000D455C1BB9D9DDBBCF53ECA3C000000006949073C0D3E423B4019EB3B000000000000000000000000000000000000000066394ABDD1AF47BD099B833D000000004786D23CE6A5B8BC35DD9CBD00000000826BB73C46A9E1BCC967BCBD000000000000000000000000000000000000000029D72BBB09058DBD726585BD000000009BEB9CBD4FFA05BE509AB9BD000000008EC88CBD49C598BD590F2DBC0000000000000000000000000000000000000000000000000000000000000000E7FD4CBC6088DB3C473D163D00000000EE882C3DA644B13D0A881F3D000000002F98DD3DBBFBBD3D64CCD73C000000000000000000000000000000000000000008A021BD7B6721BCAA4B3C3C00000000991961BC99F427BD3A4EA9BC00000000401434BDB45FE3BD975D9CBD0000000000000000000000000000000000000000E4D4FC3C54A9E33CE9D7AFB900000000492BF9BCA2409B3CEB5A90BB00000000BC9439BDB96B61BD3AB462BC0000000000000000000000000000000000000000D1C15C3DA785CF3CA8BB663C000000006D23853DAA2C593D7B4F093D00000000762A523CACEC7A3C88DF73BC00000000000000000000000000000000000000003AB64F3CAA3833BC046F7CBC00000000414A62BBB14B5ABDC3D92CBD00000000655457BDFB7B7DBD216099BC0000000000000000000000000000000000000000017333BCDC4E40BC88F7F1BC0000000070CF26BDDE44BD3B96626B3B000000009D9DDBBCF53ECA3C8FC33A3D000000000000000000000000000000000000000081315CBDEA20483DA38B4C3D00000000D1AF47BD099B833D3F56823D00000000E6A5B8BC35DD9CBDA548E8BC00000000000000000000000000000000000000009AAD4EBC9497743CF459063D0000000009058DBD726585BD6437903A000000004FFA05BE509AB9BD9A2215BD00000000000000000000000000000000000000000000000033662CBBE7FD4CBC6088DB3C00000000A7C2B3BBEE882C3DA644B13D000000001B1F2B3D2F98DD3DBBFBBD3D00000000000000000000000000000000000000007D6694BC08A021BD7B6721BC00000000B038D83B991961BC99F427BD000000001B4018BC401434BDB45FE3BD00000000000000000000000000000000000000007D61333BE4D4FC3C54A9E33C0000000053415CBD492BF9BCA2409B3C0000000089B086BBBC9439BDB96B61BD0000000000000000000000000000000000000000E8AD2E3DD1C15C3DA785CF3C00000000AB693A3D6D23853DAA2C593D00000000DF508EBC762A523CACEC7A3C0000000000000000000000000000000000000000E17F063C3AB64F3CAA3833BC000000004F6AFA3B414A62BBB14B5ABD00000000EB211ABC655457BDFB7B7DBD00000000000000000000000000000000000000009A89EBBC017333BCDC4E40BC00000000E2C12FBD70CF26BDDE44BD3B00000000D455C1BB9D9DDBBCF53ECA3C0000000000000000000000000000000000000000C8C657BD81315CBDEA20483D0000000066394ABDD1AF47BD099B833D000000004786D23CE6A5B8BC35DD9CBD00000000000000000000000000000000000000004845AC3B9AAD4EBC9497743C0000000029D72BBB09058DBD726585BD000000009BEB9CBD4FFA05BE509AB9BD360729BD32A59B3C25F0393D00000000657D13BD0B95B9BB92B6233D00000000E619B13C6B2F043DCE01C93C000000000000000000000000000000000000000049551ABBA59720BD278141BD00000000F0FB013C67C050BD370414BB000000005D8F003DF02A6D3C2204AC3C00000000000000000000000000000000000000009F1041BD56B007BD3EA0653C000000005047DBBC7348C0BDF3B772BD0000000064E2C13CEAEEEFBC7E7720BD0000000000000000000000000000000000000000677DA9BD80F26BBD4E11E0BC00000000D7842DBC53108EBCD714B3BC00000000E9DB213D98D8873C57E56EBB0000000000000000000000000000000000000000E8876FBD939266BD469F14BD0000000029219EBD75EE8BBCFF7C1B3B00000000F216CDBCB5A2B63C1E72953C0000000000000000000000000000000000000000AA99FCBC2A1F2ABDB85E2BBD000000006338B9BCE04027BC6F012EBC00000000EA82FCBC64B8D83CC0B1D23C0000000000000000000000000000000000000000D5A816BDF0900D3DC64A473C00000000A48809BD11D9D2BD0B079CBD00000000633432BD6A05CBBD8E0F70BD0000000000000000000000000000000000000000A35691BD80D89ABDE1E480BC00000000B42DA1BD82469ABCC74FE43B00000000950410BC9D16AA3C185C393C000000000000000000000000000000000000000000000000AAA673BC360729BD32A59B3C0000000038AF1D3C657D13BD0B95B9BB00000000BE79633CE619B13C6B2F043D00000000000000000000000000000000000000005C3B2ABC49551ABBA59720BD0000000020FF673DF0FB013C67C050BD00000000B2461B3D5D8F003DF02A6D3C0000000000000000000000000000000000000000A6C6F8369F1041BD56B007BD000000002AD5003C5047DBBC7348C0BD00000000A4C4613C64E2C13CEAEEEFBC0000000000000000000000000000000000000000F41057BD677DA9BD80F26BBD00000000DF8D77BCD7842DBC53108EBC0000000090029E3CE9DB213D98D8873C00000000000000000000000000000000000000009A941DBDE8876FBD939266BD0000000048936CBD29219EBD75EE8BBC000000008947EEBCF216CDBCB5A2B63C0000000000000000000000000000000000000000C518FFBCAA99FCBC2A1F2ABD00000000AA98BCBC6338B9BCE04027BC00000000C74401BDEA82FCBC64B8D83C0000000000000000000000000000000000000000136772BDD5A816BDF0900D3D00000000C224DFBBA48809BD11D9D2BD00000000D09143BB633432BD6A05CBBD0000000000000000000000000000000000000000D9BA35BCA35691BD80D89ABD000000002EAE58BDB42DA1BD82469ABC00000000DB6A95BC950410BC9D16AA3C00000000000000000000000000000000000000000000000000000000000000004306863CA534693DF574F53C00000000360729BD32A59B3C25F0393D00000000657D13BD0B95B9BB92B6233D000000000000000000000000000000000000000018D6AC3CFDE6D63CA57DC4BC0000000049551ABBA59720BD278141BD00000000F0FB013C67C050BD370414BB0000000000000000000000000000000000000000A743583B1AE9003D85A80B3D000000009F1041BD56B007BD3EA0653C000000005047DBBC7348C0BDF3B772BD0000000000000000000000000000000000000000AEBD05BD16FCC1BC44B215BC00000000677DA9BD80F26BBD4E11E0BC00000000D7842DBC53108EBCD714B3BC00000000000000000000000000000000000000007388CEBBFD938ABC0E3CA7BC00000000E8876FBD939266BD469F14BD0000000029219EBD75EE8BBCFF7C1B3B000000000000000000000000000000000000000018F21FBD02969FBBE12BB4BB00000000AA99FCBC2A1F2ABDB85E2BBD000000006338B9BCE04027BC6F012EBC000000000000000000000000000000000000000094543FBD3E381D3D74A2F33C00000000D5A816BDF0900D3DC64A473C00000000A48809BD11D9D2BD0B079CBD00000000000000000000000000000000000000005C608ABA718213BD8E953ABC00000000A35691BD80D89ABDE1E480BC00000000B42DA1BD82469ABCC74FE43B00000000000000000000000000000000000000000000000024DC2DBC4306863CA534693D00000000AAA673BC360729BD32A59B3C0000000038AF1D3C657D13BD0B95B9BB00000000000000000000000000000000000000008A8EEEBC18D6AC3CFDE6D63C000000005C3B2ABC49551ABBA59720BD0000000020FF673DF0FB013C67C050BD0000000000000000000000000000000000000000261DC23BA743583B1AE9003D00000000A6C6F8369F1041BD56B007BD000000002AD5003C5047DBBC7348C0BD0000000000000000000000000000000000000000695894BCAEBD05BD16FCC1BC00000000F41057BD677DA9BD80F26BBD00000000DF8D77BCD7842DBC53108EBC00000000000000000000000000000000000000005A9420BC7388CEBBFD938ABC000000009A941DBDE8876FBD939266BD0000000048936CBD29219EBD75EE8BBC0000000000000000000000000000000000000000D48422BD18F21FBD02969FBB00000000C518FFBCAA99FCBC2A1F2ABD00000000AA98BCBC6338B9BCE04027BC000000000000000000000000000000000000000098BB62BD94543FBD3E381D3D00000000136772BDD5A816BDF0900D3D00000000C224DFBBA48809BD11D9D2BD00000000000000000000000000000000000000001414C13C5C608ABA718213BD00000000D9BA35BCA35691BD80D89ABD000000002EAE58BDB42DA1BD82469ABC07A366BCDD2D943D84C68A3D00000000F10B03BD626C86BC2601A83C000000003BCC80BBE49231BDAFE1FFBB0000000000000000000000000000000000000000BC81013D49F0783CC608463C000000003097B7BC0A2CC3BAA23F163C0000000013A0F1BBAD0F6C3AB0C6003B0000000000000000000000000000000000000000A1BA23BD3F1F9A3D3F935C3D0000000036C8A9BCA377183C0F8E2E3800000000F4927F3C1690A53C22079C3C00000000000000000000000000000000000000002D877B3C8772A83D1A541A3D00000000CF79B7BC9A7A0BBB6BA83ABC00000000B4B468BB72FC51BD4524AABC0000000000000000000000000000000000000000EC0462BC183157BC8EB4003D000000006272B3BC888C7CBD48B14BBC000000005027A0BB6C822BBD67A416BD00000000000000000000000000000000000000004881ABBDB4893BBD48C5583C000000008F6737BCAC34C0BCBB90A6BC00000000CEEECA3C87BFB2BCDA288EBC000000000000000000000000000000000000000067436C3B36A71139CF1FD3BC0000000041204CBDC4F48FBD6DFDA6BC00000000E56C0CBD3D71CEBCC9F7993C0000000000000000000000000000000000000000079DD73DDBF4DA3DBD82153B00000000668CFA3C17A4A43DF467F43C00000000706E41BCAB1CB93BD1A55138000000000000000000000000000000000000000000000000E6EE98BC07A366BCDD2D943D000000009456A13BF10B03BD626C86BC00000000277D013D3BCC80BBE49231BD0000000000000000000000000000000000000000B68FE93CBC81013D49F0783C000000003D8940BC3097B7BC0A2CC3BA00000000B1BECEBB13A0F1BBAD0F6C3A0000000000000000000000000000000000000000E0657BBDA1BA23BD3F1F9A3D00000000C1ACF5BC36C8A9BCA377183C000000000C816C3CF4927F3C1690A53C0000000000000000000000000000000000000000545EEFBC2D877B3C8772A83D0000000059AF01BDCF79B7BC9A7A0BBB0000000009BEDC3CB4B468BB72FC51BD000000000000000000000000000000000000000033FFFB3CEC0462BC183157BC000000000ACEDF3C6272B3BC888C7CBD00000000F51A59395027A0BB6C822BBD0000000000000000000000000000000000000000158FCABC4881ABBDB4893BBD00000000AC1F04BC8F6737BCAC34C0BC000000007B85EF3CCEEECA3C87BFB2BC0000000000000000000000000000000000000000B0BAB6BC67436C3B36A7113900000000771E953841204CBDC4F48FBD00000000791E1F3CE56C0CBD3D71CEBC0000000000000000000000000000000000000000D1202A3A079DD73DDBF4DA3D00000000039CA3BC668CFA3C17A4A43D0000000090958EBC706E41BCAB1CB93B0000000000000000000000000000000000000000000000000000000000000000A126653C06FF393D3F90213D0000000007A366BCDD2D943D84C68A3D00000000F10B03BD626C86BC2601A83C000000000000000000000000000000000000000052193F3D620B903CA0F59F3B00000000BC81013D49F0783CC608463C000000003097B7BC0A2CC3BAA23F163C0000000000000000000000000000000000000000941C6FBB5074B03D9635953D00000000A1BA23BD3F1F9A3D3F935C3D0000000036C8A9BCA377183C0F8E2E38000000000000000000000000000000000000000067130C3D47A0073D25D8E73C000000002D877B3C8772A83D1A541A3D00000000CF79B7BC9A7A0BBB6BA83ABC0000000000000000000000000000000000000000C030533BAEEED93BC9E3E73B00000000EC0462BC183157BC8EB4003D000000006272B3BC888C7CBD48B14BBC000000000000000000000000000000000000000045B143BD21CF34BD85CA843C000000004881ABBDB4893BBD48C5583C000000008F6737BCAC34C0BCBB90A6BC000000000000000000000000000000000000000025EF9C3C9042393DD0AA5B3C0000000067436C3B36A71139CF1FD3BC0000000041204CBDC4F48FBD6DFDA6BC000000000000000000000000000000000000000020CC803D1EC5033DC94EE1BC00000000079DD73DDBF4DA3DBD82153B00000000668CFA3C17A4A43DF467F43C000000000000000000000000000000000000000000000000866B033CA126653C06FF393D00000000E6EE98BC07A366BCDD2D943D000000009456A13BF10B03BD626C86BC000000000000000000000000000000000000000054120B3D52193F3D620B903C00000000B68FE93CBC81013D49F0783C000000003D8940BC3097B7BC0A2CC3BA00000000000000000000000000000000000000007ADE8ABC941C6FBB5074B03D00000000E0657BBDA1BA23BD3F1F9A3D00000000C1ACF5BC36C8A9BCA377183C000000000000000000000000000000000000000066BEF03C67130C3D47A0073D00000000545EEFBC2D877B3C8772A83D0000000059AF01BDCF79B7BC9A7A0BBB0000000000000000000000000000000000000000F51A6F3BC030533BAEEED93B0000000033FFFB3CEC0462BC183157BC000000000ACEDF3C6272B3BC888C7CBD00000000000000000000000000000000000000007A0C4E3C45B143BD21CF34BD00000000158FCABC4881ABBDB4893BBD00000000AC1F04BC8F6737BCAC34C0BC000000000000000000000000000000000000000025814FBC25EF9C3C9042393D00000000B0BAB6BC67436C3B36A7113900000000771E953841204CBDC4F48FBD0000000000000000000000000000000000000000CEBB523B20CC803D1EC5033D00000000D1202A3A079DD73DDBF4DA3D00000000039CA3BC668CFA3C17A4A43DFD7940BD232EA6BB2ABE133C00000000873CA9BDC99387BACB4E133D0000000041AB3CBDA44F80BC8A73CA3C0000000000000000000000000000000000000000F4D793BD5E9383BD599CA7BC000000008B5D46BD4B0020BDA5C6273B000000007838713C3FF49437A21D833C0000000000000000000000000000000000000000D2E19C3A72E14CBD7C812FBD00000000EB5621BD6D14C7BD1F7790BD00000000D0F943BD355E36BDB7CEFFBC000000000000000000000000000000000000000065C722BD20A1C93C8C50FF3C00000000042241BDBD249FBD6ACFB0BD00000000F92B10BCFDA25FBD371E6EBD00000000000000000000000000000000000000002055AF3DBB966C3D39E27CBC000000002CF820BD3A789EBCFA64433C000000004B4392BDE16527BD6046833C0000000000000000000000000000000000000000BF2A65BD1E86A5BC6E18963C000000005BAF0FBD9F3CDFBBE413A2BC000000003371EEBB0D830FBC811F0FBD000000000000000000000000000000000000000006EF2A3CD1D7213D7EF9743C0000000093F095BC78F81BBDBB027EBC000000004788353B4BCFAEBA08E214BB00000000000000000000000000000000000000004B857A3B101258BD56E38FBD000000008F587ABC3B00EEBC14B700BD00000000E2B4CEBCBF1491BCC16F363B000000000000000000000000000000000000000000000000AEC406BDFD7940BD232EA6BB00000000A6ED3ABD873CA9BDC99387BA000000004F4DBABB41AB3CBDA44F80BC0000000000000000000000000000000000000000B0AEE8BCF4D793BD5E9383BD00000000AB06DFBB8B5D46BD4B0020BD00000000A194FB3C7838713C3FF494370000000000000000000000000000000000000000131C093CD2E19C3A72E14CBD000000003D7150BCEB5621BD6D14C7BD00000000F7820DBDD0F943BD355E36BD0000000000000000000000000000000000000000AFEF07BD65C722BD20A1C93C000000005E7764BD042241BDBD249FBD00000000E1184ABCF92B10BCFDA25FBD0000000000000000000000000000000000000000D96B4B3C2055AF3DBB966C3D00000000438B03BC2CF820BD3A789EBC0000000017F66DBC4B4392BDE16527BD0000000000000000000000000000000000000000F2B68EBCBF2A65BD1E86A5BC00000000B9D144BD5BAF0FBD9F3CDFBB00000000E40C09BD3371EEBB0D830FBC0000000000000000000000000000000000000000C27667BC06EF2A3CD1D7213D00000000FDFB8B3B93F095BC78F81BBD00000000CA1BF03A4788353B4BCFAEBA00000000000000000000000000000000000000001A3160BC4B857A3B101258BD00000000359A90BC8F587ABC3B00EEBC00000000AC489BBBE2B4CEBCBF1491BC0000000000000000000000000000000000000000000000000000000000000000BDB02ABCF061A1BCB15712BB00000000FD7940BD232EA6BB2ABE133C00000000873CA9BDC99387BACB4E133D0000000000000000000000000000000000000000FB1014BCA527CEBC2EDEE5BB00000000F4D793BD5E9383BD599CA7BC000000008B5D46BD4B0020BDA5C6273B0000000000000000000000000000000000000000B8DEEDBB2C932E3B92A967BB00000000D2E19C3A72E14CBD7C812FBD00000000EB5621BD6D14C7BD1F7790BD0000000000000000000000000000000000000000E00BB6BA0E77433DE328733D0000000065C722BD20A1C93C8C50FF3C00000000042241BDBD249FBD6ACFB0BD0000000000000000000000000000000000000000D51B5B3DF76C143D74BA39BC000000002055AF3DBB966C3D39E27CBC000000002CF820BD3A789EBCFA64433C00000000000000000000000000000000000000001593E6BC7C78B5BC826A4F3B00000000BF2A65BD1E86A5BC6E18963C000000005BAF0FBD9F3CDFBBE413A2BC0000000000000000000000000000000000000000900C013DE82C9C3DDBE1E63C0000000006EF2A3CD1D7213D7EF9743C0000000093F095BC78F81BBDBB027EBC0000000000000000000000000000000000000000C4DFC8BB529C29BD9BA813BD000000004B857A3B101258BD56E38FBD000000008F587ABC3B00EEBC14B700BD0000000000000000000000000000000000000000000000006EFAE63BBDB02ABCF061A1BC00000000AEC406BDFD7940BD232EA6BB00000000A6ED3ABD873CA9BDC99387BA0000000000000000000000000000000000000000384F153CFB1014BCA527CEBC00000000B0AEE8BCF4D793BD5E9383BD00000000AB06DFBB8B5D46BD4B0020BD00000000000000000000000000000000000000008C7E5CBCB8DEEDBB2C932E3B00000000131C093CD2E19C3A72E14CBD000000003D7150BCEB5621BD6D14C7BD0000000000000000000000000000000000000000D905283CE00BB6BA0E77433D00000000AFEF07BD65C722BD20A1C93C000000005E7764BD042241BDBD249FBD00000000000000000000000000000000000000000902C23BD51B5B3DF76C143D00000000D96B4B3C2055AF3DBB966C3D00000000438B03BC2CF820BD3A789EBC0000000000000000000000000000000000000000456A39BB1593E6BC7C78B5BC00000000F2B68EBCBF2A65BD1E86A5BC00000000B9D144BD5BAF0FBD9F3CDFBB0000000000000000000000000000000000000000A4B887BC900C013DE82C9C3D00000000C27667BC06EF2A3CD1D7213D00000000FDFB8B3B93F095BC78F81BBD000000000000000000000000000000000000000060104ABAC4DFC8BB529C29BD000000001A3160BC4B857A3B101258BD00000000359A90BC8F587ABC3B00EEBCA393373C9191403D159ADBBB00000000A916B9BCD87BE6BBE6AD01BD000000004A98D7BB4AC291BB746B49BC0000000000000000000000000000000000000000C607E2BCBA1BB0BC57B5443C00000000D8B4E43C6DF8E63DCA61AC3D00000000AC7C6F3D0BA7CB3DEF34683D0000000000000000000000000000000000000000577B72BDA7008FBD11B264BD00000000515185BDE5119CBD39D868BD00000000D8F9F4BCDF5D0BBD162FF9BC0000000000000000000000000000000000000000845D3ABC3AE8883C930E1B3D00000000567E7A3D8A2E9E3B3E7ACCBC000000009BAB903D830A113DC53BF33B00000000000000000000000000000000000000006988E83C67B420B9881FD2BC00000000EE28EBBC1170793C3F66A03C00000000E517AFBD5133F2BB7EDA8C3C0000000000000000000000000000000000000000B052BA3D3089E6BCF86AA6BD000000008919223DCC2989BCA39C48BD0000000037DBD93BEF6F30BAE862F6BB0000000000000000000000000000000000000000FEEF93BD76EE29BDD4C29DBC000000001DF7FCBB18DCB1BC531399BC0000000039F7243C1325623BEB62F9BB0000000000000000000000000000000000000000DE65823BDF3C37BD1EA340BD000000008B3153BC7D0AC7BD540E46BD00000000A12DCBBC610BC9BDDF1E4ABD000000000000000000000000000000000000000000000000EB1F2EBDA393373C9191403D00000000BF6941BDA916B9BCD87BE6BB0000000074566CBC4A98D7BB4AC291BB00000000000000000000000000000000000000007CBAC13BC607E2BCBA1BB0BC0000000080B634BAD8B4E43C6DF8E63D0000000009C7803CAC7C6F3D0BA7CB3D00000000000000000000000000000000000000001A2C39BD577B72BDA7008FBD0000000011573BBD515185BDE5119CBD00000000306DD7BCD8F9F4BCDF5D0BBD0000000000000000000000000000000000000000520C203C845D3ABC3AE8883C00000000667B003D567E7A3D8A2E9E3B000000002CB42E3D9BAB903D830A113D000000000000000000000000000000000000000052523D3B6988E83C67B420B900000000B97AC7BCEE28EBBC1170793C00000000207C79BDE517AFBD5133F2BB000000000000000000000000000000000000000008141B3DB052BA3D3089E6BC00000000688EF03B8919223DCC2989BC000000004E364FB937DBD93BEF6F30BA0000000000000000000000000000000000000000F1D24CBDFEEF93BD76EE29BD000000000BD499BB1DF7FCBB18DCB1BC000000000B1C82BA39F7243C1325623B0000000000000000000000000000000000000000A4CFDC3ADE65823BDF3C37BD00000000433A133D8B3153BC7D0AC7BD0000000026C2C43CA12DCBBC610BC9BD000000000000000000000000000000000000000000000000000000000000000068FADE3CC3284B3D187F4F3C00000000A393373C9191403D159ADBBB00000000A916B9BCD87BE6BBE6AD01BD0000000000000000000000000000000000000000CFE5413BA1B00EBD40857DBC00000000C607E2BCBA1BB0BC57B5443C00000000D8B4E43C6DF8E63DCA61AC3D000000000000000000000000000000000000000044ABC4BCC876E2BCC5E2F0BC00000000577B72BDA7008FBD11B264BD00000000515185BDE5119CBD39D868BD00000000000000000000000000000000000000002CD0F7BACEB8413D95D98F3D00000000845D3ABC3AE8883C930E1B3D00000000567E7A3D8A2E9E3B3E7ACCBC00000000000000000000000000000000000000003BAEE8BC4686BABC49ABE5BC000000006988E83C67B420B9881FD2BC00000000EE28EBBC1170793C3F66A03C00000000000000000000000000000000000000003DC76D3DC7C545BCAA0523BD00000000B052BA3D3089E6BCF86AA6BD000000008919223DCC2989BCA39C48BD00000000000000000000000000000000000000004B035FBD31BC85BC761006BC00000000FEEF93BD76EE29BDD4C29DBC000000001DF7FCBB18DCB1BC531399BC0000000000000000000000000000000000000000C8F601BCA73E3BBDA9B344BD00000000DE65823BDF3C37BD1EA340BD000000008B3153BC7D0AC7BD540E46BD000000000000000000000000000000000000000000000000252F1FBC68FADE3CC3284B3D00000000EB1F2EBDA393373C9191403D00000000BF6941BDA916B9BCD87BE6BB00000000000000000000000000000000000000005CDBB63CCFE5413BA1B00EBD000000007CBAC13BC607E2BCBA1BB0BC0000000080B634BAD8B4E43C6DF8E63D00000000000000000000000000000000000000004217D3BC44ABC4BCC876E2BC000000001A2C39BD577B72BDA7008FBD0000000011573BBD515185BDE5119CBD0000000000000000000000000000000000000000B577AC3C2CD0F7BACEB8413D00000000520C203C845D3ABC3AE8883C00000000667B003D567E7A3D8A2E9E3B00000000000000000000000000000000000000009FE909BD3BAEE8BC4686BABC0000000052523D3B6988E83C67B420B900000000B97AC7BCEE28EBBC1170793C00000000000000000000000000000000000000000966F83C3DC76D3DC7C545BC0000000008141B3DB052BA3D3089E6BC00000000688EF03B8919223DCC2989BC000000000000000000000000000000000000000050A93DBD4B035FBD31BC85BC00000000F1D24CBDFEEF93BD76EE29BD000000000BD499BB1DF7FCBB18DCB1BC0000000000000000000000000000000000000000CECA27BCC8F601BCA73E3BBD00000000A4CFDC3ADE65823BDF3C37BD00000000433A133D8B3153BC7D0AC7BD2711403CB93A343D4FDBE13C000000005F3C2E3C26029EBC7DA6F0BC00000000C0CEB63B468972BDD0D357BD0000000000000000000000000000000000000000C4CB363D7E1CAE3DFB1E1A3D000000003752433C46D9303CCCDB813C0000000079D18B3C22CEE1BCF882B9BB0000000000000000000000000000000000000000721C383DC31721BC5BD0D2BC000000004E69C33C8A25413D1762203D000000000D3180BAC0C4F93C3260173D0000000000000000000000000000000000000000DAB257BDD542ADBDAA0C05BD000000001E5286BD0256C7BD5CB078BD00000000BF504DBD4355DEBC6F07E5BC0000000000000000000000000000000000000000B406AB3B57D0203CA05A483A00000000CA5BE9BB7CCE47BCE0374E3C00000000709BB1BB763FB0BCD6288ABB0000000000000000000000000000000000000000ED76CE3C3C618ABC8AD4CB39000000000E3FB53C69B99E3CF3BD203D000000004F8D063DC123373C1ECE803B0000000000000000000000000000000000000000017C213DBE147D3C4CFEBEBC0000000047FC8FBC468C47BDF08726BD00000000B36639BD174E67BD0701DABC0000000000000000000000000000000000000000F30C05BD6FAE273D9FBA813D00000000F5939C3CD1AC00BD073AA93C0000000055B1C53C778E11BC2336263B0000000000000000000000000000000000000000000000003E469ABB2711403CB93A343D00000000F93A0F3A5F3C2E3C26029EBC00000000393D463CC0CEB63B468972BD0000000000000000000000000000000000000000BAE334BBC4CB363D7E1CAE3D0000000045188B3C3752433C46D9303C000000006F9F1F3D79D18B3C22CEE1BC000000000000000000000000000000000000000069F4ED3C721C383DC31721BC0000000069E2813C4E69C33C8A25413D000000004CE2B33B0D3180BAC0C4F93C000000000000000000000000000000000000000093760EBADAB257BDD542ADBD000000002851EDBC1E5286BD0256C7BD00000000D5A950BDBF504DBD4355DEBC00000000000000000000000000000000000000004C1D7BBBB406AB3B57D0203C000000003CAC903CCA5BE9BB7CCE47BC00000000CA9C423C709BB1BB763FB0BC0000000000000000000000000000000000000000BE032E3DED76CE3C3C618ABC00000000C5002C3D0E3FB53C69B99E3C0000000046BCD13C4F8D063DC123373C0000000000000000000000000000000000000000BBEA2D3A017C213DBE147D3C0000000033E71BBC47FC8FBC468C47BD000000007E647CBCB36639BD174E67BD0000000000000000000000000000000000000000921825BCF30C05BD6FAE273D00000000E7C9913DF5939C3CD1AC00BD00000000AA9F113D55B1C53C778E11BC00000000000000000000000000000000000000000000000000000000000000005178DA3B2E94853BB1688B3B000000002711403CB93A343D4FDBE13C000000005F3C2E3C26029EBC7DA6F0BC0000000000000000000000000000000000000000F3DF4B3D991B3F3D6D01843C00000000C4CB363D7E1CAE3DFB1E1A3D000000003752433C46D9303CCCDB813C000000000000000000000000000000000000000085CCA43C3412D9BC25D4E4BC00000000721C383DC31721BC5BD0D2BC000000004E69C33C8A25413D1762203D00000000000000000000000000000000000000005E5F18BD22116CBC44FD8F3900000000DAB257BDD542ADBDAA0C05BD000000001E5286BD0256C7BD5CB078BD00000000000000000000000000000000000000000EC7E23B65FE013A516383BC00000000B406AB3B57D0203CA05A483A00000000CA5BE9BB7CCE47BCE0374E3C00000000000000000000000000000000000000003F29133DC488CDBC860C0FBD00000000ED76CE3C3C618ABC8AD4CB39000000000E3FB53C69B99E3CF3BD203D0000000000000000000000000000000000000000C64D403CF81AFC3BE9DE17BC00000000017C213DBE147D3C4CFEBEBC0000000047FC8FBC468C47BDF08726BD000000000000000000000000000000000000000086FCE0BCD1FB813D9C3B393D00000000F30C05BD6FAE273D9FBA813D00000000F5939C3CD1AC00BD073AA93C000000000000000000000000000000000000000000000000D44CE03B5178DA3B2E94853B000000003E469ABB2711403CB93A343D00000000F93A0F3A5F3C2E3C26029EBC0000000000000000000000000000000000000000228A9D3CF3DF4B3D991B3F3D00000000BAE334BBC4CB363D7E1CAE3D0000000045188B3C3752433C46D9303C0000000000000000000000000000000000000000940A993C85CCA43C3412D9BC0000000069F4ED3C721C383DC31721BC0000000069E2813C4E69C33C8A25413D00000000000000000000000000000000000000003676B8BC5E5F18BD22116CBC0000000093760EBADAB257BDD542ADBD000000002851EDBC1E5286BD0256C7BD000000000000000000000000000000000000000000831DBC0EC7E23B65FE013A000000004C1D7BBBB406AB3B57D0203C000000003CAC903CCA5BE9BB7CCE47BC000000000000000000000000000000000000000037C2D53C3F29133DC488CDBC00000000BE032E3DED76CE3C3C618ABC00000000C5002C3D0E3FB53C69B99E3C00000000000000000000000000000000000000003E3DABBBC64D403CF81AFC3B00000000BBEA2D3A017C213DBE147D3C0000000033E71BBC47FC8FBC468C47BD0000000000000000000000000000000000000000493A3BBD86FCE0BCD1FB813D00000000921825BCF30C05BD6FAE273D00000000E7C9913DF5939C3CD1AC00BD09DC9EBD8CDF39BD834755BC00000000956CE5BCD07296BD2A5473BC0000000029B3C53B559E44BD7DD7E8BC0000000000000000000000000000000000000000133FB4BD310CADBCAE43D3BC000000007EB08BBDF0E6543C9C7F7E3C000000008EF126BD4BA7533C3667DB3C0000000000000000000000000000000000000000F24586BCE2F6883CDEF69C3C00000000802AEEBC4B6687BB42A981BC00000000014D61BA434D0DBC31D59FBC0000000000000000000000000000000000000000D6F2A2BC8B571ABE7AE6B4BD000000009D5EEBBC78720BBE8B3855BD00000000CE02913CABA036BD302316BD0000000000000000000000000000000000000000D33ECE3CC4595BBD826E9FBD0000000054A257BCC0340FBD6B9905BC00000000F0DF23BDA16577BB2667B13C0000000000000000000000000000000000000000B7E763BC272A5FBDF79333BD00000000CCED4C3DAA2F00BDBA9D80BD000000001ADD203D6EC8F4BCD4F6EDBC0000000000000000000000000000000000000000C4BB85BD58670CBE2DE5B0BD0000000083C2A9BD13A918BE382596BD00000000C97D5FBD1FD182BDE40A9ABC0000000000000000000000000000000000000000F26617BD495D24BCA7F6B73B00000000C44260BB58A46FBD50688FBD00000000E3AC33BCC3BAA5BCD2D2D1BC000000000000000000000000000000000000000000000000662A39BD09DC9EBD8CDF39BD0000000098B4FA3C956CE5BCD07296BD00000000F8D1D13C29B3C53B559E44BD0000000000000000000000000000000000000000F2CCBDBD133FB4BD310CADBC00000000687D86BD7EB08BBDF0E6543C000000008C4FDCBC8EF126BD4BA7533C0000000000000000000000000000000000000000EC8B64BCF24586BCE2F6883C0000000018FD26BD802AEEBC4B6687BB00000000EE7140BC014D61BA434D0DBC0000000000000000000000000000000000000000CB172E3DD6F2A2BC8B571ABE0000000009E2623D9D5EEBBC78720BBE00000000C4FDD13CCE02913CABA036BD0000000000000000000000000000000000000000770A673AD33ECE3CC4595BBD0000000040975F3C54A257BCC0340FBD000000000CD86EBCF0DF23BDA16577BB0000000000000000000000000000000000000000D23B56BBB7E763BC272A5FBD0000000005C4973CCCED4C3DAA2F00BD00000000E745243D1ADD203D6EC8F4BC000000000000000000000000000000000000000007926EBCC4BB85BD58670CBE000000004B59E9BB83C2A9BD13A918BE00000000F7831BBCC97D5FBD1FD182BD000000000000000000000000000000000000000095A1AEBCF26617BD495D24BC00000000D3C174BCC44260BB58A46FBD0000000081EE85BCE3AC33BCC3BAA5BC0000000000000000000000000000000000000000000000000000000000000000624B32BD8130A3BC29D1D9BC0000000009DC9EBD8CDF39BD834755BC00000000956CE5BCD07296BD2A5473BC0000000000000000000000000000000000000000B90E78BD04ACADBC8B386EBC00000000133FB4BD310CADBCAE43D3BC000000007EB08BBDF0E6543C9C7F7E3C00000000000000000000000000000000000000004DB4413CA553483CDE957D3C00000000F24586BCE2F6883CDEF69C3C00000000802AEEBC4B6687BB42A981BC0000000000000000000000000000000000000000956ED93CF33472BDCC5B95BD00000000D6F2A2BC8B571ABE7AE6B4BD000000009D5EEBBC78720BBE8B3855BD00000000000000000000000000000000000000002CFEDABABE36B7BC17C344BD00000000D33ECE3CC4595BBD826E9FBD0000000054A257BCC0340FBD6B9905BC00000000000000000000000000000000000000003E15CABCB45E59BDB34F25BC00000000B7E763BC272A5FBDF79333BD00000000CCED4C3DAA2F00BDBA9D80BD00000000000000000000000000000000000000004B7017BD509B54BD5B8502BD00000000C4BB85BD58670CBE2DE5B0BD0000000083C2A9BD13A918BE382596BD0000000000000000000000000000000000000000FE4D36BD485FE73C0CE64C3D00000000F26617BD495D24BCA7F6B73B00000000C44260BB58A46FBD50688FBD000000000000000000000000000000000000000000000000B69B4DBD624B32BD8130A3BC00000000662A39BD09DC9EBD8CDF39BD0000000098B4FA3C956CE5BCD07296BD0000000000000000000000000000000000000000DAC65CBDB90E78BD04ACADBC00000000F2CCBDBD133FB4BD310CADBC00000000687D86BD7EB08BBDF0E6543C000000000000000000000000000000000000000085F6763C4DB4413CA553483C00000000EC8B64BCF24586BCE2F6883C0000000018FD26BD802AEEBC4B6687BB000000000000000000000000000000000000000093D2503C956ED93CF33472BD00000000CB172E3DD6F2A2BC8B571ABE0000000009E2623D9D5EEBBC78720BBE000000000000000000000000000000000000000052FFDFBC2CFEDABABE36B7BC00000000770A673AD33ECE3CC4595BBD0000000040975F3C54A257BCC0340FBD00000000000000000000000000000000000000005000963C3E15CABCB45E59BD00000000D23B56BBB7E763BC272A5FBD0000000005C4973CCCED4C3DAA2F00BD0000000000000000000000000000000000000000ACB48ABC4B7017BD509B54BD0000000007926EBCC4BB85BD58670CBE000000004B59E9BB83C2A9BD13A918BE00000000000000000000000000000000000000002C2FBABCFE4D36BD485FE73C0000000095A1AEBCF26617BD495D24BC00000000D3C174BCC44260BB58A46FBD25B692BC623D49BDF5D1BDBC000000007F35BEBC0A2414BD99C90CBD000000004AAD4FBC16C3C6BC126796BC0000000000000000000000000000000000000000BD24DF3CD681913CDCE404BC00000000BE69863B0FDE713DC094153D00000000FE7BA5BB6373383D00BB2D3D00000000000000000000000000000000000000007B3CFA3CFD99C03C32D20FBD00000000869E0F3D0A1E1D3D25E0543C000000000DAC1FBCDAD758BC8F784B3A0000000000000000000000000000000000000000468B24BD93A587BD387EE0BC0000000009871DBDC58C82BCFAC6D5BB00000000B08EC6BCE3B3BF3C4A5D5F3C000000000000000000000000000000000000000074CF413D0392013DE289C0B800000000C1A0733D4F304A3D299D5EBC00000000825F2C3D0F73343D7F1E39BC0000000000000000000000000000000000000000D58652BC9A8C2F3DAA27813B000000007C54A7BB078F913DD2B1593C00000000D91BFF3AF9CC393D6B23803C0000000000000000000000000000000000000000EB49563D254CD63DBF8BA73C00000000979BB63C041E2B3D83C9973C000000001BFB8CBC2E8800BB71536E3C0000000000000000000000000000000000000000F8DB613C26165FBD3F7159BD00000000715EADBCE020B0BD967DC9BD000000000BAFB9BCC98F50BD783785BD00000000000000000000000000000000000000000000000052E5033C25B692BC623D49BD000000009D80AFBC7F35BEBC0A2414BD0000000083EADDBB4AAD4FBC16C3C6BC00000000000000000000000000000000000000009C07B33ABD24DF3CD681913C000000002FF896BCBE69863B0FDE713D00000000153FFBBBFE7BA5BB6373383D0000000000000000000000000000000000000000E601E6BC7B3CFA3CFD99C03C0000000014E21E3C869E0F3D0A1E1D3D00000000ACC68B3B0DAC1FBCDAD758BC000000000000000000000000000000000000000070E7AFBA468B24BD93A587BD000000000CF3EDBC09871DBDC58C82BC00000000F7490BBDB08EC6BCE3B3BF3C0000000000000000000000000000000000000000AF747F3C74CF413D0392013D00000000826D63BBC1A0733D4F304A3D00000000B46C59BC825F2C3D0F73343D00000000000000000000000000000000000000005A0954BDD58652BC9A8C2F3D0000000014CE80BD7C54A7BB078F913D00000000C984E3BCD91BFF3AF9CC393D00000000000000000000000000000000000000007F8802BDEB49563D254CD63D00000000D3DD7ABA979BB63C041E2B3D00000000950B38BA1BFB8CBC2E8800BB0000000000000000000000000000000000000000936F783CF8DB613C26165FBD00000000A56809BD715EADBCE020B0BD00000000ADB616BD0BAFB9BCC98F50BD00000000000000000000000000000000000000000000000000000000000000002D5DF1BBE37A18BD5597EABB0000000025B692BC623D49BDF5D1BDBC000000007F35BEBC0A2414BD99C90CBD00000000000000000000000000000000000000004E2B943CF363753B622F11BB00000000BD24DF3CD681913CDCE404BC00000000BE69863B0FDE713DC094153D000000000000000000000000000000000000000030AD69BC050EE6BC59DC41BD000000007B3CFA3CFD99C03C32D20FBD00000000869E0F3D0A1E1D3D25E0543C00000000000000000000000000000000000000002997D4BCA455DCBC5377EDBB00000000468B24BD93A587BD387EE0BC0000000009871DBDC58C82BCFAC6D5BB0000000000000000000000000000000000000000691CF53C87A9D73C5CF60F3B0000000074CF413D0392013DE289C0B800000000C1A0733D4F304A3D299D5EBC000000000000000000000000000000000000000038F2BDBB0A778C3CB351CE3B00000000D58652BC9A8C2F3DAA27813B000000007C54A7BB078F913DD2B1593C00000000000000000000000000000000000000004AFA513CC271793DF5EB863C00000000EB49563D254CD63DBF8BA73C00000000979BB63C041E2B3D83C9973C0000000000000000000000000000000000000000C43A493C60C89EBC09CAA1BC00000000F8DB613C26165FBD3F7159BD00000000715EADBCE020B0BD967DC9BD000000000000000000000000000000000000000000000000A5F8B93C2D5DF1BBE37A18BD0000000052E5033C25B692BC623D49BD000000009D80AFBC7F35BEBC0A2414BD0000000000000000000000000000000000000000C7B1463C4E2B943CF363753B000000009C07B33ABD24DF3CD681913C000000002FF896BCBE69863B0FDE713D0000000000000000000000000000000000000000A24009BD30AD69BC050EE6BC00000000E601E6BC7B3CFA3CFD99C03C0000000014E21E3C869E0F3D0A1E1D3D0000000000000000000000000000000000000000677DCEBB2997D4BCA455DCBC0000000070E7AFBA468B24BD93A587BD000000000CF3EDBC09871DBDC58C82BC0000000000000000000000000000000000000000B7C6BD3B691CF53C87A9D73C00000000AF747F3C74CF413D0392013D00000000826D63BBC1A0733D4F304A3D00000000000000000000000000000000000000002B5F88BC38F2BDBB0A778C3C000000005A0954BDD58652BC9A8C2F3D0000000014CE80BD7C54A7BB078F913D0000000000000000000000000000000000000000367D01BD4AFA513CC271793D000000007F8802BDEB49563D254CD63D00000000D3DD7ABA979BB63C041E2B3D00000000000000000000000000000000000000007137433CC43A493C60C89EBC00000000936F783CF8DB613C26165FBD00000000A56809BD715EADBCE020B0BDFDBE2EBBBACADF3C15A4BA3C000000002733D03CEDE45B3CF504B0BC000000002233AE3CDBB0E03B7B763DBC0000000000000000000000000000000000000000D45B223D523E403D0769623D00000000F65665BCC54BA63B1CD9BC3C00000000AC665BBD780B73BDCCA3CBBC00000000000000000000000000000000000000005B4EA43C9C36693B9CE0E5BC000000004368BB3D339F8D3D35C5AFBC000000009AA3CD3D2A10A53D3019163C0000000000000000000000000000000000000000B66324BDD1F5F7BD02C5A6BD000000005270F53BBE4341BD2696DABC000000008F4F4C3D6BA4853C21851B3C0000000000000000000000000000000000000000E9C9D73930AEE63CF7659D3C000000009E1200BD9D289CBDA4975EBD00000000BE1A33BD754BADBD81854ABD0000000000000000000000000000000000000000773298BBBC97AABDCB3CB0BD00000000A61F48BCADEE05BDF22335BD00000000100550BC62ADA23C0D8A1E3C0000000000000000000000000000000000000000896200BC57F77C3C4B18633C000000007919553C2149233B7A89DFBB000000002F5284BB4CC4873C45D49F3B000000000000000000000000000000000000000046FE273D526F853D81032D3D00000000C47F31BD916C0E3DD639773D00000000CCC485BD61CDD8BBBD0D1E3D00000000000000000000000000000000000000000000000013FAEBBBFDBE2EBBBACADF3C0000000089881BBC2733D03CEDE45B3C000000006F5D3A3B2233AE3CDBB0E03B00000000000000000000000000000000000000008986443DD45B223D523E403D00000000BF6A823BF65665BCC54BA63B00000000355A9CBCAC665BBD780B73BD000000000000000000000000000000000000000029723DBC5B4EA43C9C36693B0000000073E16B3A4368BB3D339F8D3D00000000565AED3C9AA3CD3D2A10A53D00000000000000000000000000000000000000002E8600BAB66324BDD1F5F7BD00000000694DE53C5270F53BBE4341BD00000000A25E303D8F4F4C3D6BA4853C000000000000000000000000000000000000000023D20BBCE9C9D73930AEE63C00000000206419BC9E1200BD9D289CBD0000000055250CBCBE1A33BD754BADBD00000000000000000000000000000000000000006983F2BB773298BBBC97AABD000000005D7AC2BCA61F48BCADEE05BD00000000E36ABBBC100550BC62ADA23C000000000000000000000000000000000000000094411ABC896200BC57F77C3C00000000D009723B7919553C2149233B00000000C7E380BC2F5284BB4CC4873C00000000000000000000000000000000000000004546943C46FE273D526F853D00000000FE6491BCC47F31BD916C0E3D000000005EC4A4BCCCC485BD61CDD8BB0000000000000000000000000000000000000000000000000000000000000000935FDFBB7B04AA3CE6F6053D00000000FDBE2EBBBACADF3C15A4BA3C000000002733D03CEDE45B3CF504B0BC00000000000000000000000000000000000000001BCA95383D2D8FBC9954F13B00000000D45B223D523E403D0769623D00000000F65665BCC54BA63B1CD9BC3C0000000000000000000000000000000000000000B73BED3C64D5753C8D89273B000000005B4EA43C9C36693B9CE0E5BC000000004368BB3D339F8D3D35C5AFBC0000000000000000000000000000000000000000E9DC133BAED56BBDA85D39BD00000000B66324BDD1F5F7BD02C5A6BD000000005270F53BBE4341BD2696DABC0000000000000000000000000000000000000000316245BCD022A23C3C8AC53C00000000E9C9D73930AEE63CF7659D3C000000009E1200BD9D289CBDA4975EBD00000000000000000000000000000000000000004BFDA7BB33D4FBBC21B303BD00000000773298BBBC97AABDCB3CB0BD00000000A61F48BCADEE05BDF22335BD00000000000000000000000000000000000000008DD2CBBCD3D6F13C9563D13C00000000896200BC57F77C3C4B18633C000000007919553C2149233B7A89DFBB0000000000000000000000000000000000000000E2E89B3CCCB0C23CD0AEA73C0000000046FE273D526F853D81032D3D00000000C47F31BD916C0E3DD639773D000000000000000000000000000000000000000000000000B645A83B935FDFBB7B04AA3C0000000013FAEBBBFDBE2EBBBACADF3C0000000089881BBC2733D03CEDE45B3C00000000000000000000000000000000000000002D18CC3C1BCA95383D2D8FBC000000008986443DD45B223D523E403D00000000BF6A823BF65665BCC54BA63B00000000000000000000000000000000000000003642873CB73BED3C64D5753C0000000029723DBC5B4EA43C9C36693B0000000073E16B3A4368BB3D339F8D3D000000000000000000000000000000000000000052D76E3CE9DC133BAED56BBD000000002E8600BAB66324BDD1F5F7BD00000000694DE53C5270F53BBE4341BD0000000000000000000000000000000000000000B026FDBB316245BCD022A23C0000000023D20BBCE9C9D73930AEE63C00000000206419BC9E1200BD9D289CBD00000000000000000000000000000000000000008245D6BB4BFDA7BB33D4FBBC000000006983F2BB773298BBBC97AABD000000005D7AC2BCA61F48BCADEE05BD0000000000000000000000000000000000000000CB45ECBC8DD2CBBCD3D6F13C0000000094411ABC896200BC57F77C3C00000000D009723B7919553C2149233B0000000000000000000000000000000000000000E6E6803CE2E89B3CCCB0C23C000000004546943C46FE273D526F853D00000000FE6491BCC47F31BD916C0E3DCEC2C5BCC2DDA4BD770FFBBC00000000DE37AD3C080687BD7F2A06BD0000000018D5103C1EF93CBD3976A3BC000000000000000000000000000000000000000017462F3D6741213D7BE0C93C00000000860BBB3C23C2AF3C677F743C0000000056FBA0BB57748B3B1B2F303B0000000000000000000000000000000000000000A675B63BC01E703C171B7F3C00000000D7A775BC16CE293DB3E0683D000000005C4D873BE0BA753DBDF2613D0000000000000000000000000000000000000000EF096F3D24ABB03D0A668D3C00000000DCD1483DD2C7A53C2B6A95BC00000000A37142BC7296EBBC0AFC0FBC00000000000000000000000000000000000000007D5C673D5A32973C0B5CABB900000000C43BDA3D43169ABCC060D7BC0000000006A19E3D4B3805BC8E5993BC0000000000000000000000000000000000000000B3E43FBD8B36BD3A86CDB23C00000000D24910BC7B4E3EBDA648E9BC000000000FD43CBB5FD844BDF746DCBC00000000000000000000000000000000000000003EFC8D3CD395B13CEE7A28BC000000007C9423BD353FEE3BDF44643C00000000FF1016BDA44F123C163D053D0000000000000000000000000000000000000000E1CD6F3DFEDF73BC336B503C000000003EEB14BC2E0DE0BD4CF439BD00000000633816BDED7745BD66B0DCBC000000000000000000000000000000000000000000000000C1A4D23CCEC2C5BCC2DDA4BD00000000807D5E3DDE37AD3C080687BD0000000047730F3D18D5103C1EF93CBD0000000000000000000000000000000000000000DBE9E53C17462F3D6741213D000000001689853C860BBB3C23C2AF3C000000001F58D4BB56FBA0BB57748B3B0000000000000000000000000000000000000000546ED43BA675B63BC01E703C000000008E53D439D7A775BC16CE293D000000000B9E37BA5C4D873BE0BA753D000000000000000000000000000000000000000050652EBCEF096F3D24ABB03D0000000077E32C3CDCD1483DD2C7A53C0000000038BF043CA37142BC7296EBBC0000000000000000000000000000000000000000986C1A3D7D5C673D5A32973C0000000025E9CA3DC43BDA3D43169ABC00000000AC718A3D06A19E3D4B3805BC000000000000000000000000000000000000000048CFD8BCB3E43FBD8B36BD3A00000000CF5E163CD24910BC7B4E3EBD0000000045CF953C0FD43CBB5FD844BD000000000000000000000000000000000000000019AE6FBC3EFC8D3CD395B13C000000002B4B08BD7C9423BD353FEE3B000000004A9F55BCFF1016BDA44F123C00000000000000000000000000000000000000005770B03DE1CD6F3DFEDF73BC0000000041EB603D3EEB14BC2E0DE0BD00000000A4627CBC633816BDED7745BD0000000000000000000000000000000000000000000000000000000000000000104815BD92A878BDB33092BC00000000CEC2C5BCC2DDA4BD770FFBBC00000000DE37AD3C080687BD7F2A06BD0000000000000000000000000000000000000000A583763CC19DB53C574D4B3C0000000017462F3D6741213D7BE0C93C00000000860BBB3C23C2AF3C677F743C0000000000000000000000000000000000000000AC44CA3C7AF4073D3E63633C00000000A675B63BC01E703C171B7F3C00000000D7A775BC16CE293DB3E0683D0000000000000000000000000000000000000000604526BB25A7183D2FD2DA3C00000000EF096F3D24ABB03D0A668D3C00000000DCD1483DD2C7A53C2B6A95BC0000000000000000000000000000000000000000034EE03C77ACEE3C85B3023C000000007D5C673D5A32973C0B5CABB900000000C43BDA3D43169ABCC060D7BC00000000000000000000000000000000000000007F9F27BD442F20B935CFBF3C00000000B3E43FBD8B36BD3A86CDB23C00000000D24910BC7B4E3EBDA648E9BC00000000000000000000000000000000000000003603A93CD82DBF3C8A34083C000000003EFC8D3CD395B13CEE7A28BC000000007C9423BD353FEE3BDF44643C00000000000000000000000000000000000000009CA0FD3C70AA3D3DCC6DFF3C00000000E1CD6F3DFEDF73BC336B503C000000003EEB14BC2E0DE0BD4CF439BD0000000000000000000000000000000000000000000000003D41D23B104815BD92A878BD00000000C1A4D23CCEC2C5BCC2DDA4BD00000000807D5E3DDE37AD3C080687BD0000000000000000000000000000000000000000F52AAD3BA583763CC19DB53C00000000DBE9E53C17462F3D6741213D000000001689853C860BBB3C23C2AF3C00000000000000000000000000000000000000005935B03BAC44CA3C7AF4073D00000000546ED43BA675B63BC01E703C000000008E53D439D7A775BC16CE293D00000000000000000000000000000000000000008E8956BC604526BB25A7183D0000000050652EBCEF096F3D24ABB03D0000000077E32C3CDCD1483DD2C7A53C00000000000000000000000000000000000000003AEDCB3B034EE03C77ACEE3C00000000986C1A3D7D5C673D5A32973C0000000025E9CA3DC43BDA3D43169ABC00000000000000000000000000000000000000006A2F8EBC7F9F27BD442F20B90000000048CFD8BCB3E43FBD8B36BD3A00000000CF5E163CD24910BC7B4E3EBD00000000000000000000000000000000000000008EBEB73B3603A93CD82DBF3C0000000019AE6FBC3EFC8D3CD395B13C000000002B4B08BD7C9423BD353FEE3B000000000000000000000000000000000000000088B9813C9CA0FD3C70AA3D3D000000005770B03DE1CD6F3DFEDF73BC0000000041EB603D3EEB14BC2E0DE0BD496DC9BC2AA12F3B7699AC3C00000000C81F9C3CBE1B8C3D2699863D000000002C16BC3BCFF7323D8034593D00000000000000000000000000000000000000002395ABBD9E0798BD763BE6BC00000000D00094BBD86F7B3DD3F82E3C00000000B9F31D3D3D11833D07DD603C0000000000000000000000000000000000000000FE9FFD382B03B9BD0A3392BD00000000A0CB8E3AEEF540BD1A1E54BD00000000FE2D88BBECB8A4BB0D40B0BB00000000000000000000000000000000000000003B9F86BCCB80C63C7A23B93C00000000CAEFB3BA44B72A3DE17E1B3D0000000005B499BC747DF2B98643333C0000000000000000000000000000000000000000A8AA7A3DE56BAF3DA784833D00000000C847113D30799E3D4141373D000000007E98AEBC29FE243AACD1933900000000000000000000000000000000000000006DB711BD6F3D90BDD9500FBD000000005A8D83BD9C7C1EBD0931033C0000000042EA41BDC939B1BCEDEFBF3B0000000000000000000000000000000000000000F4D6183D247B5E3DF8FAE23C000000000CBDD83CB61EDB3A18E84CBD00000000586BF23BE908873CF020BDBC0000000000000000000000000000000000000000AE8C6ABDB9D6A23C034EE93C000000002472AEBD95DF413CDF685E3D00000000ED3E61BD0CC338BC0D0BC13C000000000000000000000000000000000000000000000000E11FCBBB496DC9BC2AA12F3B000000006815863CC81F9C3CBE1B8C3D00000000DAFD763C2C16BC3BCFF7323D0000000000000000000000000000000000000000C5381ABD2395ABBD9E0798BD00000000BD3162BDD00094BBD86F7B3D00000000FFDD3FBCB9F31D3D3D11833D0000000000000000000000000000000000000000223E9C3CFE9FFD382B03B9BD00000000E71C6BBBA0CB8E3AEEF540BD0000000020B593BBFE2D88BBECB8A4BB00000000000000000000000000000000000000008CFC93BC3B9F86BCCB80C63C000000000CBFA6BBCAEFB3BA44B72A3D000000003121F1BB05B499BC747DF2B900000000000000000000000000000000000000002DDC223DA8AA7A3DE56BAF3D000000009B6A393BC847113D30799E3D000000002971B1BC7E98AEBC29FE243A000000000000000000000000000000000000000058670DB96DB711BD6F3D90BD00000000AEA38FBC5A8D83BD9C7C1EBD00000000C09EA2BC42EA41BDC939B1BC00000000000000000000000000000000000000002F652F3CF4D6183D247B5E3D000000000EC5CEBC0CBDD83CB61EDB3A0000000082C703BD586BF23BE908873C0000000000000000000000000000000000000000095147BDAE8C6ABDB9D6A23C000000004EF32EBD2472AEBD95DF413C000000004711A5BCED3E61BD0CC338BC0000000000000000000000000000000000000000000000000000000000000000C3431BBD348BB4BCBD3B093C00000000496DC9BC2AA12F3B7699AC3C00000000C81F9C3CBE1B8C3D2699863D000000000000000000000000000000000000000073B626BD4DAE92BD5C49CDBC000000002395ABBD9E0798BD763BE6BC00000000D00094BBD86F7B3DD3F82E3C000000000000000000000000000000000000000066EAA7BB84A745BDF89FCCBC00000000FE9FFD382B03B9BD0A3392BD00000000A0CB8E3AEEF540BD1A1E54BD0000000000000000000000000000000000000000228A0ABDB3B792BC10E290BB000000003B9F86BCCB80C63C7A23B93C00000000CAEFB3BA44B72A3DE17E1B3D000000000000000000000000000000000000000008B5903B8CE5113C62DFA13C00000000A8AA7A3DE56BAF3DA784833D00000000C847113D30799E3D4141373D0000000000000000000000000000000000000000F50D99BC289B5ABD1E1F18BD000000006DB711BD6F3D90BDD9500FBD000000005A8D83BD9C7C1EBD0931033C0000000000000000000000000000000000000000B18B953C51938D3D1BD55F3D00000000F4D6183D247B5E3DF8FAE23C000000000CBDD83CB61EDB3A18E84CBD0000000000000000000000000000000000000000A5CEDDBCB7D453BB71C513BB00000000AE8C6ABDB9D6A23C034EE93C000000002472AEBD95DF413CDF685E3D000000000000000000000000000000000000000000000000CD79F5BBC3431BBD348BB4BC00000000E11FCBBB496DC9BC2AA12F3B000000006815863CC81F9C3CBE1B8C3D0000000000000000000000000000000000000000C50BC03B73B626BD4DAE92BD00000000C5381ABD2395ABBD9E0798BD00000000BD3162BDD00094BBD86F7B3D000000000000000000000000000000000000000077B4943C66EAA7BB84A745BD00000000223E9C3CFE9FFD382B03B9BD00000000E71C6BBBA0CB8E3AEEF540BD00000000000000000000000000000000000000001595A6BC228A0ABDB3B792BC000000008CFC93BC3B9F86BCCB80C63C000000000CBFA6BBCAEFB3BA44B72A3D0000000000000000000000000000000000000000BB337A3C08B5903B8CE5113C000000002DDC223DA8AA7A3DE56BAF3D000000009B6A393BC847113D30799E3D000000000000000000000000000000000000000009AF20BBF50D99BC289B5ABD0000000058670DB96DB711BD6F3D90BD00000000AEA38FBC5A8D83BD9C7C1EBD00000000000000000000000000000000000000001445773BB18B953C51938D3D000000002F652F3CF4D6183D247B5E3D000000000EC5CEBC0CBDD83CB61EDB3A0000000000000000000000000000000000000000BCCCD5BCA5CEDDBCB7D453BB00000000095147BDAE8C6ABDB9D6A23C000000004EF32EBD2472AEBD95DF413C4FF6BDBC7795DFBCA9982ABC00000000E9A644BD3A3E2E3DE87F3C3D00000000069AE5BC7FEB713C06458A3C000000000000000000000000000000000000000065739DBC9132F23C365720BB00000000C286FFBC54793BBD1D9AF53B0000000017053BBDE1E5A1BD09B9A0BC0000000000000000000000000000000000000000A752093D369C8A3C84B9D73B00000000A223B9BC206F113C048EA53B00000000C9B46BBD722A80BA5D8B2A3C00000000000000000000000000000000000000002CE1ADBD00798FBD566D17BC00000000418F23BDF0EF2FBEB906A7BD00000000282E093D249281BD202D4BBD0000000000000000000000000000000000000000892C4B3D62A4463D6C51163D000000006FF9BD3D5F62D03D6B9A083D00000000DB50983DE951A63DB2DCC63C0000000000000000000000000000000000000000307712BC533B6E3D8E2D6C3D000000000DF3DA3DA41D833DE6F5293C000000009B36B33D28A03A3DB19999BC000000000000000000000000000000000000000096ABE4BD707ACCBD886CBDBC00000000215CC1BDEDBB33BD78AB193D000000003DF04ABB57AD133DDB2E463D00000000000000000000000000000000000000001DCA763D46DDA33DD9EE263D00000000D8BF293D5C89803D11AD313D00000000B11F623C69A1B03CCB0C163C000000000000000000000000000000000000000000000000B1B4CEBB4FF6BDBC7795DFBC000000003B6536BDE9A644BD3A3E2E3D00000000C04AD4BC069AE5BC7FEB713C00000000000000000000000000000000000000006FD851BD65739DBC9132F23C000000006ED2B43CC286FFBC54793BBD000000009CA8613C17053BBDE1E5A1BD000000000000000000000000000000000000000078F7BD3CA752093D369C8A3C00000000B177D8BCA223B9BC206F113C000000009E103DBDC9B46BBD722A80BA00000000000000000000000000000000000000005C57C5BC2CE1ADBD00798FBD000000000F234E3D418F23BDF0EF2FBE000000005125413D282E093D249281BD000000000000000000000000000000000000000093D91A3D892C4B3D62A4463D000000001691C73C6FF9BD3D5F62D03D000000007AD88E3CDB50983DE951A63D000000000000000000000000000000000000000045AE1ABC307712BC533B6E3D000000004A285A3D0DF3DA3DA41D833D000000006C00BE3C9B36B33D28A03A3D000000000000000000000000000000000000000090180FBD96ABE4BD707ACCBD00000000714355BC215CC1BDEDBB33BD00000000004A173C3DF04ABB57AD133D0000000000000000000000000000000000000000D2FCAB3C1DCA763D46DDA33D0000000060B4B43CD8BF293D5C89803D00000000544DB73AB11F623C69A1B03C0000000000000000000000000000000000000000000000000000000000000000151452BB158E61BD8F0322BD000000004FF6BDBC7795DFBCA9982ABC00000000E9A644BD3A3E2E3DE87F3C3D000000000000000000000000000000000000000069FB09BD5F9273BB772AF2BC0000000065739DBC9132F23C365720BB00000000C286FFBC54793BBD1D9AF53B00000000000000000000000000000000000000001E0ABABAFC87E73B1DA1433C00000000A752093D369C8A3C84B9D73B00000000A223B9BC206F113C048EA53B0000000000000000000000000000000000000000BB133CBC79A91D3DF809BA3C000000002CE1ADBD00798FBD566D17BC00000000418F23BDF0EF2FBEB906A7BD0000000000000000000000000000000000000000C2B6FF3CEC06E53CB44AE23C00000000892C4B3D62A4463D6C51163D000000006FF9BD3D5F62D03D6B9A083D00000000000000000000000000000000000000005E2DE8BC32A0223D78C6E93C00000000307712BC533B6E3D8E2D6C3D000000000DF3DA3DA41D833DE6F5293C0000000000000000000000000000000000000000DC9BA6BC3717A3BC85CB48BC0000000096ABE4BD707ACCBD886CBDBC00000000215CC1BDEDBB33BD78AB193D00000000000000000000000000000000000000003192053D88F81E3DD627D63B000000001DCA763D46DDA33DD9EE263D00000000D8BF293D5C89803D11AD313D00000000000000000000000000000000000000000000000013A5493C151452BB158E61BD00000000B1B4CEBB4FF6BDBC7795DFBC000000003B6536BDE9A644BD3A3E2E3D00000000000000000000000000000000000000007FD773BD69FB09BD5F9273BB000000006FD851BD65739DBC9132F23C000000006ED2B43CC286FFBC54793BBD00000000000000000000000000000000000000006F6F623B1E0ABABAFC87E73B0000000078F7BD3CA752093D369C8A3C00000000B177D8BCA223B9BC206F113C0000000000000000000000000000000000000000D752DFBCBB133CBC79A91D3D000000005C57C5BC2CE1ADBD00798FBD000000000F234E3D418F23BDF0EF2FBE00000000000000000000000000000000000000008AFAFC3CC2B6FF3CEC06E53C0000000093D91A3D892C4B3D62A4463D000000001691C73C6FF9BD3D5F62D03D0000000000000000000000000000000000000000A6D321BD5E2DE8BC32A0223D0000000045AE1ABC307712BC533B6E3D000000004A285A3D0DF3DA3DA41D833D0000000000000000000000000000000000000000CFD44FBCDC9BA6BC3717A3BC0000000090180FBD96ABE4BD707ACCBD00000000714355BC215CC1BDEDBB33BD0000000000000000000000000000000000000000C851AF393192053D88F81E3D00000000D2FCAB3C1DCA763D46DDA33D0000000060B4B43CD8BF293D5C89803D"> : tensor<64x128xf32>
    %0 = scf.for %arg0 = %c0_i32 to %c64_i32 step %c1_i32 iter_args(%arg1 = %cst) -> (tensor<64x1024xf32>)  : i32 {
      %1 = scf.for %arg2 = %c0_i32 to %c1024_i32 step %c1_i32 iter_args(%arg3 = %arg1) -> (tensor<64x1024xf32>)  : i32 {
        %2 = arith.remsi %arg2, %c64_i32 : i32
        %3 = arith.subi %c0_i32, %arg0 : i32
        %4 = arith.subi %3, %arg2 : i32
        %5 = arith.addi %4, %c1151_i32 : i32
        %6 = arith.remsi %5, %c128_i32 : i32
        %7 = arith.subi %c127_i32, %6 : i32
        %8 = arith.index_cast %2 : i32 to index
        %9 = arith.index_cast %7 : i32 to index
        %extracted = tensor.extract %cst_0[%8, %9] : tensor<64x128xf32>
        %10 = arith.index_cast %arg0 : i32 to index
        %11 = arith.index_cast %arg2 : i32 to index
        %inserted = tensor.insert %extracted into %arg3[%10, %11] : tensor<64x1024xf32>
        scf.yield %inserted : tensor<64x1024xf32>
      }
      scf.yield %1 : tensor<64x1024xf32>
    }
    return %0 : tensor<64x1024xf32>
  }
  func.func private @_assign_layout_8504590335812623450() -> tensor<128x1024xf32> attributes {client.pack_func = {func_name = "alexnet_tiny"}} {
    %c255_i32 = arith.constant 255 : i32
    %c1024_i32 = arith.constant 1024 : i32
    %c256_i32 = arith.constant 256 : i32
    %c1279_i32 = arith.constant 1279 : i32
    %c128_i32 = arith.constant 128 : i32
    %cst = arith.constant dense<0.000000e+00> : tensor<128x1024xf32>
    %c0_i32 = arith.constant 0 : i32
    %c1_i32 = arith.constant 1 : i32
    %cst_0 = arith.constant 